'<pad>'
'<EOS>'
'the_'
'qnt_'
'<_'
'> _'
' ._'
' , _'
'and_'
'of_'
'to_'
'in_'
'are_'
'a_'
'were_'
'have_'
'these_'
'-_'
'for_'
'is_'
'on_'
's_'
'with_'
'as_'
' '_'
'or_'
'that_'
'by_'
'be_'
'from_'
'them_'
'their_'
'this_'
' " _'
'but_'
'at_'
'been_'
'was_'
' ( _'
'us_'
'they_'
'it_'
'which_'
'had_'
'his_'
'our_'
'all_'
'not_'
'will_'
'who_'
'more_'
'can_'
'an_'
' ' _'
'we_'
'some_'
'other_'
'those_'
'._'
'you_'
' ) _'
'one_'
'. _'
'would_'
'so_'
'i_'
'time_'
'Â_'
'most_'
'such_'
'any_'
' : _'
'has_'
'people_'
'up_'
' - _'
'work_'
'new_'
'its_'
'than_'
'also_'
' ; _'
'do_'
'many_'
'out_'
'into_'
'there_'
'about_'
'now_'
'only_'
'very_'
'used_'
' ) ._'
'over_'
'may_'
'my_'
'include_'
'well_'
'still_'
'when_'
'made_'
'he_'
'including_'
' % _'
'no_'
'two_'
'known_'
'could_'
'years_'
'children_'
'during_'
'through_'
'use_'
'area_'
'what_'
'like_'
'found_'
'population_'
'part_'
'after_'
'members_'
'even_'
'being_'
'others_'
'her_'
'below_'
'under_'
'much_'
'if_'
'year_'
'while_'
'school_'
'¢_'
'where_'
'your_'
'students_'
'first_'
''_'
'here_'
',_'
'within_'
'works_'
't_'
'n_'
'own_'
'just_'
'few_'
'however_'
' !_'
'world_'
'before_'
'said_'
'high_'
'make_'
'uk_'
'did_'
'either_'
'day_'
'available_'
'way_'
'old_'
'good_'
'around_'
' " ._'
'because_'
' ) , _'
'me_'
'local_'
'back_'
'see_'
'ever_'
'come_'
'above_'
'1_'
'today_'
'original_'
'areas_'
'place_'
'based_'
'2_'
'water_'
'same_'
'information_'
'included_'
'get_'
'city_'
'small_'
'how_'
'group_'
'line_'
'between_'
'without_'
'three_'
'support_'
'men_'
'go_'
'families_'
'although_'
'major_'
'live_'
'him_'
'seen_'
'per_'
'long_'
'early_'
'came_'
'young_'
'services_'
'life_'
'national_'
'/_'
'great_'
' " , _'
'taken_'
'species_'
'000_'
'women_'
'war_'
'down_'
'take_'
'should_'
'service_'
'music_'
'less_'
'involved_'
'songs_'
'often_'
'family_'
'best_'
'working_'
'themselves_'
'staff_'
'public_'
'north_'
'know_'
'given_'
'free_'
'later_'
'large_'
'century_'
'buildings_'
'though_'
'state_'
'problems_'
'government_'
'listed_'
'land_'
'home_'
'5_'
'using_'
'site_'
'off_'
'need_'
'common_'
'university_'
'top_'
'too_'
'schools_'
'main_'
'living_'
'form_'
'find_'
'3_'
'written_'
'then_'
'number_'
'money_'
'left_'
'end_'
'each_'
'characters_'
'built_'
'Ã_'
'last_'
'went_'
'remain_'
'poverty_'
'full_'
'cent_'
'called_'
'another_'
'level_'
'cases_'
'things_'
'important_'
'help_'
'development_'
'companies_'
' " ( _'
'united_'
'states_'
'right_'
'period_'
'except_'
'done_'
'country_'
'books_'
'became_'
'products_'
'little_'
'houses_'
'_'
'south_'
'received_'
'quality_'
'house_'
'events_'
'covered_'
'class_'
'yet_'
'since_'
'research_'
'groups_'
'friends_'
'four_'
'english_'
'current_'
'british_'
'both_'
'10_'
' ?_'
'system_'
'several_'
'series_'
'e_'
'due_'
'community_'
'better_'
'able_'
'show_'
'patients_'
'name_'
'different_'
'book_'
'survive_'
'stories_'
'names_'
'london_'
'half_'
'enough_'
'/ _'
'training_'
'together_'
'read_'
'published_'
'experience_'
'away_'
'already_'
'activities_'
'access_'
'set_'
'seem_'
'park_'
'open_'
'offer_'
'course_'
'business_'
'american_'
'social_'
're_'
'provide_'
'located_'
'items_'
'health_'
'west_'
'until_'
'poor_'
'play_'
'past_'
'non_'
'material_'
'island_'
'film_'
'education_'
'become_'
'against_'
'town_'
'present_'
'players_'
'never_'
'issues_'
'having_'
'former_'
'features_'
'east_'
'church_'
'along_'
'100_'
'sites_'
'recent_'
'rather_'
'quite_'
'particularly_'
'countries_'
'company_'
'appear_'
'age_'
'tracks_'
'survived_'
'study_'
'say_'
'road_'
'rest_'
'outside_'
'ones_'
'management_'
'least_'
'far_'
'air_'
' :_'
' & _'
'team_'
'she_'
'respondents_'
'point_'
'particular_'
'give_'
'4_'
'£ _'
'studies_'
'significant_'
'side_'
'second_'
'result_'
'previous_'
'international_'
'game_'
'evidence_'
'district_'
'various_'
'thought_'
'spent_'
'single_'
'run_'
'produced_'
'party_'
'late_'
'john_'
'industry_'
'general_'
'films_'
'county_'
'appeared_'
'again_'
'15_'
'worked_'
'week_'
'village_'
'third_'
'think_'
'records_'
'low_'
'learning_'
'food_'
'fact_'
'courses_'
'changes_'
'animals_'
'among_'
'6_'
' " , " _'
'white_'
'sold_'
'society_'
'older_'
'must_'
'market_'
'majority_'
'light_'
'interest_'
'homes_'
'got_'
'building_'
'band_'
'8_'
' -- _'
'traditional_'
'took_'
'times_'
'similar_'
'require_'
'related_'
'recorded_'
'modern_'
'larger_'
'knowledge_'
'ideas_'
'human_'
'hospital_'
'history_'
'held_'
'data_'
'central_'
'actually_'
'range_'
'production_'
'power_'
'lost_'
'look_'
'killed_'
'famous_'
'example_'
'england_'
'developed_'
'designed_'
'club_'
'clients_'
'care_'
'activity_'
' % ) _'
'residents_'
'played_'
'near_'
'key_'
'going_'
'games_'
'every_'
'created_'
'considered_'
'website_'
'specific_'
'special_'
'short_'
'really_'
'real_'
'provided_'
'process_'
'probably_'
'political_'
'once_'
'offered_'
'million_'
'mentioned_'
'job_'
'higher_'
'feel_'
'exist_'
'exception_'
'european_'
'd_'
'black_'
'want_'
'systems_'
'skills_'
'released_'
'possible_'
'places_'
'online_'
'natural_'
'named_'
'museum_'
'making_'
'likely_'
'g_'
'five_'
'field_'
'currently_'
'college_'
'close_'
'car_'
'big_'
'20_'
'©_'
'_'
'teachers_'
'popular_'
'personal_'
'order_'
'nature_'
'levels_'
'figures_'
'effects_'
'council_'
'comes_'
'cars_'
'always_'
'0_'
'western_'
'view_'
'union_'
'survey_'
'street_'
'sound_'
'section_'
'saw_'
'projects_'
'pieces_'
'night_'
'lives_'
'language_'
'lack_'
'knew_'
'individual_'
'images_'
'facilities_'
'especially_'
'case_'
'art_'
'according_'
' _'
'workers_'
'users_'
'upon_'
'type_'
'trade_'
'teaching_'
'style_'
'standard_'
'serious_'
'returned_'
'resources_'
'required_'
'reported_'
'put_'
'presented_'
'post_'
'none_'
'hard_'
'god_'
'following_'
'europe_'
'difficult_'
'destroyed_'
'design_'
'days_'
'album_'
'whether_'
'web_'
'six_'
'shows_'
'science_'
'remained_'
'reading_'
'project_'
'programs_'
'pay_'
'page_'
'notable_'
'let_'
'lake_'
'income_'
'heart_'
'face_'
'death_'
'control_'
'contain_'
'centre_'
'carried_'
'c_'
'britain_'
'body_'
'believe_'
'artists_'
'active_'
' , " _'
'trees_'
'start_'
'southern_'
'self_'
'river_'
'remaining_'
'red_'
'professional_'
'practice_'
'parents_'
'moved_'
'months_'
'might_'
'man_'
'longer_'
'list_'
'largest_'
'hand_'
'gas_'
'further_'
'elsewhere_'
'date_'
'cut_'
'cost_'
'benefits_'
'behind_'
'7_'
'vehicles_'
'taking_'
'strong_'
'simply_'
'seemed_'
'report_'
'property_'
'parts_'
'next_'
'met_'
'measures_'
'independent_'
'ground_'
'fire_'
'featured_'
'does_'
'de_'
'contained_'
'america_'
'almost_'
've_'
'terms_'
'stage_'
'sometimes_'
'something_'
'ships_'
'share_'
'running_'
'route_'
'pre_'
'month_'
'medical_'
'lot_'
'lived_'
'french_'
'force_'
'disease_'
'died_'
'details_'
'customers_'
'content_'
'collection_'
'aircraft_'
'act_'
' ' ._'
'whole_'
'wanted_'
'variety_'
'travel_'
'techniques_'
'surveyed_'
'sudden_'
'subject_'
'story_'
'st_'
'size_'
'rock_'
'risk_'
'rights_'
'return_'
'recently_'
'questions_'
'properties_'
'programmes_'
'private_'
'police_'
'officers_'
'northern_'
'looking_'
'kind_'
'itself_'
'increase_'
'housing_'
'feature_'
'experienced_'
'eventually_'
'employees_'
'directly_'
'completely_'
'co_'
'cannot_'
'30_'
'www_'
'via_'
'usually_'
'useful_'
'units_'
'term_'
'student_'
'sources_'
'rural_'
'rooms_'
'role_'
'regular_'
'record_'
'points_'
'paid_'
'official_'
'occur_'
'normal_'
'mostly_'
'middle_'
'managed_'
'internet_'
'interesting_'
'germany_'
'generation_'
'forms_'
'expected_'
'examples_'
'documents_'
'display_'
'described_'
'credit_'
'complete_'
'anything_'
'affected_'
'achieved_'
'64_'
'50_'
' ... _'
'write_'
'video_'
'value_'
'understand_'
'types_'
'treatment_'
'success_'
'seven_'
'sense_'
'scenes_'
'reports_'
'questioned_'
'produce_'
'problem_'
'primary_'
'placed_'
'passed_'
'paper_'
'paintings_'
'methods_'
'library_'
'letters_'
'leading_'
'law_'
'joined_'
'instead_'
'gone_'
'german_'
'front_'
'financial_'
'extremely_'
'earth_'
'commercial_'
'cause_'
'bank_'
'associated_'
'9_'
'¢ _'
'_'
'_'
'york_'
'words_'
'wide_'
'whom_'
'u_'
'tv_'
'treated_'
'therefore_'
'supported_'
'software_'
'smaller_'
'season_'
'scheme_'
'room_'
'region_'
'receive_'
'providing_'
'person_'
'performed_'
'owned_'
'needed_'
'nearby_'
'native_'
'military_'
'links_'
'jobs_'
'jewish_'
'inside_'
'hours_'
'heard_'
'hall_'
'green_'
'felt_'
'familiar_'
'fall_'
'etc_'
'elements_'
'eight_'
'effect_'
'direct_'
'degree_'
'crew_'
'coming_'
'blood_'
'army_'
'writing_'
'villages_'
'victims_'
'traffic_'
'throughout_'
'text_'
'stay_'
'stations_'
'started_'
'sports_'
'spend_'
'someone_'
'served_'
'search_'
'scotland_'
'replaced_'
'release_'
'radio_'
'programme_'
'prisoners_'
'plants_'
'physical_'
'parties_'
'office_'
'needs_'
'means_'
'legal_'
'leaders_'
'languages_'
'labour_'
'keep_'
'individuals_'
'impact_'
'idea_'
'highly_'
'goes_'
'forces_'
'favourite_'
'farmers_'
'employed_'
'easy_'
'earlier_'
'drugs_'
'distance_'
'degrees_'
'cities_'
'changed_'
'chance_'
'caused_'
'believed_'
'average_'
'attention_'
'attend_'
'alone_'
'action_'
'11_'
' ' , _'
'ways_'
'unique_'
'unable_'
'transport_'
'towards_'
'tests_'
'technology_'
'surface_'
'successful_'
'simple_'
'shown_'
'security_'
'roles_'
'roads_'
'rich_'
'represented_'
'remains_'
'recordings_'
'raised_'
'preserved_'
'photographs_'
'objects_'
'meet_'
'm_'
'looked_'
'limited_'
'introduced_'
'institutions_'
'industrial_'
'identified_'
'gave_'
'expect_'
'established_'
'environment_'
'employment_'
'directors_'
'designs_'
'decided_'
'deal_'
'continued_'
'conditions_'
'commission_'
'claim_'
'christian_'
'child_'
'career_'
'blue_'
'am_'
'advice_'
'additional_'
'across_'
'accommodation_'
'2005_'
'_'
'zone_'
'whose_'
'weeks_'
'walk_'
'valley_'
'uses_'
'universities_'
'unit_'
'turned_'
'turn_'
'train_'
'towns_'
'topics_'
'told_'
'teams_'
'summer_'
'stand_'
'soon_'
'rise_'
'remember_'
'relevant_'
'rare_'
'prominent_'
'price_'
'prepared_'
'participants_'
'p_'
'organisations_'
'operations_'
'movement_'
'mind_'
'love_'
'leave_'
'league_'
'kingdom_'
'islands_'
'ireland_'
'involve_'
'india_'
'households_'
'hour_'
'hotel_'
'greater_'
'graduates_'
'france_'
'follow_'
'existing_'
'excellent_'
'equipment_'
'else_'
'division_'
'develop_'
'continue_'
'completed_'
'collections_'
'classes_'
'china_'
'cd_'
'brought_'
'bring_'
'bought_'
'bodies_'
'bit_'
'basis_'
'attended_'
'allow_'
'african_'
'adults_'
'500_'
'40_'
'25_'
'18_'
'worth_'
'volunteers_'
'trying_'
'true_'
'trained_'
'subsequently_'
'subjects_'
'standards_'
'square_'
'spoke_'
'specialist_'
'sort_'
'soldiers_'
'scientific_'
'scale_'
'san_'
'royal_'
'routes_'
'round_'
'roman_'
'referred_'
'reach_'
'pupils_'
'program_'
'processes_'
'prior_'
'previously_'
'press_'
'potential_'
'poems_'
'options_'
'operation_'
'onto_'
'nor_'
'news_'
'necessary_'
'musicians_'
'musical_'
'member_'
'matter_'
'led_'
'lead_'
'j_'
'himself_'
'head_'
'future_'
'fully_'
'format_'
'fish_'
'fields_'
'failed_'
'entire_'
'enjoy_'
'eighteens_'
'doing_'
'discussed_'
'concerned_'
'computer_'
'change_'
'boys_'
'birds_'
'beyond_'
'base_'
'aware_'
'association_'
'added_'
'account_'
'60_'
'2006_'
'2000_'
'wish_'
'windows_'
'visit_'
'total_'
'tools_'
'titles_'
'television_'
'structure_'
'status_'
'stated_'
'seems_'
'secondary_'
'sales_'
'requirements_'
'question_'
'quarter_'
'publications_'
'product_'
'positions_'
'position_'
'player_'
'plans_'
'pictures_'
'perhaps_'
'performance_'
'oil_'
'mr_'
'michael_'
'mention_'
'lower_'
'japanese_'
'intended_'
'inhabitants_'
'immigrants_'
'huge_'
'historic_'
'girls_'
'getting_'
'generally_'
'funding_'
'forest_'
'fine_'
'final_'
'farm_'
'fans_'
'factors_'
'court_'
'coast_'
'citizens_'
'churches_'
'choice_'
'cards_'
'cancer_'
'campaign_'
'california_'
'board_'
'benefit_'
'b_'
'authors_'
'attack_'
'academic_'
'ability_'
'2001_'
'19th_'
'13_'
'--_'
'why_'
'wales_'
'views_'
'version_'
'tried_'
'territory_'
'tax_'
'takes_'
'table_'
'stuff_'
'straight_'
'space_'
'solo_'
'showed_'
'shot_'
'setting_'
'seriously_'
'results_'
'religious_'
'pretty_'
'policies_'
'permission_'
'permanent_'
'performances_'
'opportunity_'
'offering_'
'occupied_'
'obvious_'
'numerous_'
'nearly_'
'model_'
'mid_'
'match_'
'male_'
'magazines_'
'literary_'
'lakes_'
'kids_'
'interested_'
'industries_'
'hill_'
'function_'
'foundation_'
'followed_'
'focus_'
'feet_'
'father_'
'extra_'
'everyone_'
'event_'
'ended_'
'employers_'
'effort_'
'economic_'
'download_'
'department_'
'crime_'
'converted_'
'connected_'
'compositions_'
'complex_'
'clubs_'
'clear_'
'buy_'
'businesses_'
'beginning_'
'began_'
'background_'
'australia_'
'articles_'
'approximately_'
'anti_'
'accessible_'
'12_'
' " '_'
'younger_'
'wrong_'
'writers_'
'won_'
'whilst_'
'visitors_'
'unless_'
'tradition_'
'themes_'
'technical_'
'surviving_'
'structures_'
'station_'
'spanish_'
'sent_'
'sector_'
'sea_'
'safety_'
'rivers_'
'reproduced_'
'reasons_'
'reason_'
'rate_'
'protected_'
'principal_'
'photos_'
'pages_'
'origin_'
'organisation_'
'numbers_'
'minor_'
'manufactured_'
'managers_'
'manage_'
'mainly_'
'machines_'
'locations_'
'lies_'
'leaving_'
'kept_'
'investment_'
'instruments_'
'includes_'
'improved_'
'hope_'
'hold_'
'hit_'
'hands_'
'funded_'
'forests_'
'fighting_'
'ex_'
'dr_'
'double_'
'discovered_'
'despite_'
'deep_'
'dead_'
'cross_'
'couple_'
'construction_'
'considerable_'
'components_'
'communities_'
'collected_'
'classified_'
'character_'
'certain_'
'careers_'
'captured_'
'boats_'
'belong_'
'beautiful_'
'basic_'
'amount_'
'agriculture_'
'ago_'
'adult_'
'actual_'
'achieve_'
'14_'
'. , _'
' [ _'
' _'
'youth_'
'word_'
'wild_'
'wall_'
'voice_'
'valuable_'
'try_'
'troops_'
'ten_'
'tales_'
'streets_'
'stop_'
'statements_'
'speed_'
'speaking_'
'speak_'
'soviet_'
'sides_'
'shopping_'
'sets_'
'september_'
'schemes_'
'scene_'
'save_'
'sale_'
'runs_'
'rules_'
'rocks_'
'review_'
'restored_'
'responsible_'
'regularly_'
'regions_'
'regional_'
'protection_'
'progress_'
'practical_'
'poetry_'
'please_'
'plant_'
'plan_'
'percent_'
'ourselves_'
'opened_'
'o_'
'notes_'
'note_'
'mine_'
'meeting_'
'married_'
'makes_'
'locally_'
'learn_'
'largely_'
'k_'
'issue_'
'irish_'
'injuries_'
'indian_'
'ii_'
'highest_'
'happy_'
'happened_'
'happen_'
'giving_'
'gardens_'
'fuel_'
'football_'
'fit_'
'fear_'
'extensive_'
'expressed_'
'experts_'
'escaped_'
'engine_'
'electronic_'
'effective_'
'educational_'
'eastern_'
'doctors_'
'difficulties_'
'detailed_'
'designated_'
'derived_'
'dates_'
'damaged_'
'damage_'
'cultural_'
'create_'
'consumer_'
'condition_'
'composed_'
'compared_'
'colleges_'
'coal_'
'closely_'
'closed_'
'castle_'
'carry_'
'camp_'
'born_'
'biggest_'
'bible_'
'bay_'
'bands_'
'awards_'
'authority_'
'asked_'
'appropriate_'
'apply_'
'applications_'
'animal_'
'ancient_'
'al_'
'agricultural_'
'agreed_'
'agencies_'
'advanced_'
'200_'
' ] _'
' : " _'
' / _'
' .. ._'
'william_'
'visual_'
'versions_'
'urban_'
'unknown_'
'trials_'
'trial_'
'tree_'
'thomas_'
'symptoms_'
'surrounding_'
'spending_'
'source_'
'sex_'
'sell_'
'score_'
'scientists_'
'rising_'
'removed_'
'remainder_'
'reliable_'
'relatively_'
'ready_'
'reached_'
'rates_'
'railway_'
'proposed_'
'practices_'
'planning_'
'performing_'
'peace_'
'pass_'
'participate_'
'opening_'
'occurred_'
'novels_'
'nothing_'
'notably_'
'neighborhood_'
'nation_'
'murder_'
'move_'
'morning_'
'models_'
'mexico_'
'mental_'
'memory_'
'materials_'
'master_'
'maintained_'
'magazine_'
'loss_'
'link_'
'length_'
'king_'
'journey_'
'italian_'
'insurance_'
'initial_'
'influence_'
'increased_'
'highway_'
'helped_'
'healthy_'
'george_'
'frequently_'
'formed_'
'follows_'
'flowers_'
'figure_'
'fiction_'
'fees_'
'feeling_'
'fee_'
'falls_'
'extent_'
'experiences_'
'exercise_'
'everything_'
'evening_'
'ethnic_'
'et_'
'essential_'
'episodes_'
'ensure_'
'drivers_'
'domestic_'
'digital_'
'die_'
'devices_'
'depth_'
'defence_'
'daily_'
'criticism_'
'cover_'
'contact_'
'constructed_'
'computers_'
'colleagues_'
'classic_'
'claims_'
'chinese_'
'card_'
'capable_'
'broken_'
'boards_'
'beach_'
'bad_'
'authorities_'
'aspects_'
'arrangements_'
'arms_'
'appears_'
'anyone_'
'analysis_'
'amongst_'
'aged_'
'advantage_'
'adopted_'
'administration_'
'address_'
'actors_'
'abroad_'
'800_'
'35_'
'28_'
'20th_'
'- _'
'winter_'
'wind_'
'wider_'
'weapons_'
'wars_'
'w_'
'volume_'
'van_'
'usa_'
'track_'
'tour_'
'tone_'
'thanks_'
'tested_'
'temples_'
'taught_'
'sure_'
'supply_'
'supplied_'
'sunday_'
'sun_'
'suitable_'
'subsequent_'
'sub_'
'stress_'
'stopped_'
'stone_'
'steel_'
'stayed_'
'standing_'
'son_'
'significantly_'
'shops_'
'shop_'
'ship_'
'severe_'
'secure_'
'scottish_'
'sample_'
'retained_'
'respect_'
'republic_'
'religion_'
'recognition_'
'reality_'
'readers_'
'rain_'
'printed_'
'possibly_'
'populations_'
'pop_'
'pool_'
'pc_'
'payments_'
'paul_'
'passengers_'
'participated_'
'papers_'
'pain_'
'pacific_'
'otherwise_'
'originally_'
'opposition_'
'obtained_'
'noted_'
'nine_'
'newspapers_'
'narrow_'
'muslims_'
'minutes_'
'messages_'
'mass_'
'maps_'
'locals_'
'literature_'
'linked_'
'libraries_'
'lay_'
'keen_'
'join_'
'jews_'
'jesus_'
'james_'
'insects_'
'improve_'
'ice_'
'historical_'
'heavy_'
'guide_'
'grown_'
'greek_'
'friendly_'
'forward_'
'foreign_'
'foot_'
'focused_'
'firms_'
'firm_'
'fighters_'
'fewer_'
'female_'
'fell_'
'factor_'
'escape_'
'era_'
'entries_'
'entirely_'
'engines_'
'elected_'
'efforts_'
'effectively_'
'doubt_'
'direction_'
'diet_'
'delivery_'
'delivered_'
'decades_'
'deaths_'
'customer_'
'culture_'
'critics_'
'crimes_'
'copyright_'
'consumers_'
'consists_'
'conference_'
'committed_'
'comments_'
'com_'
'colour_'
'color_'
'clothes_'
'clinical_'
'classical_'
'charge_'
'channel_'
'challenge_'
'centres_'
'caught_'
'cat_'
'capital_'
'canadian_'
'campus_'
'buried_'
'bridge_'
'boat_'
'birth_'
'bird_'
'bed_'
'ask_'
'arrived_'
'april_'
'airport_'
'addition_'
'accounts_'
'accessed_'
'90_'
'70_'
'55_'
'53_'
'52_'
'2004_'
'16_'
'x_'
'watch_'
'washington_'
'walls_'
'vote_'
'vision_'
'violence_'
'viewing_'
'vessels_'
'user_'
'understanding_'
'trust_'
'translation_'
'translated_'
'thing_'
'theories_'
'temporary_'
'targets_'
'suggesting_'
'suffered_'
'suffer_'
'successfully_'
'stones_'
'step_'
'specifically_'
'situation_'
'sitting_'
'sections_'
'scholars_'
'says_'
'safe_'
'roughly_'
'robert_'
'reviewed_'
'response_'
'represent_'
'rely_'
'receiving_'
'realise_'
'purpose_'
'publication_'
'province_'
'providers_'
'properly_'
'professionals_'
'processing_'
'pressure_'
'powers_'
'portion_'
'policy_'
'plays_'
'planned_'
'paying_'
'pattern_'
'palace_'
'owners_'
'origins_'
'operating_'
'officials_'
'network_'
'muslim_'
'museums_'
'movies_'
'mountain_'
'modified_'
'method_'
'medicine_'
'media_'
'markets_'
'mark_'
'manchester_'
'lines_'
'lie_'
'leadership_'
'jack_'
'israel_'
'iraq_'
'intelligence_'
'instruction_'
'institute_'
'initially_'
'influenced_'
'indeed_'
'incorporated_'
'importance_'
'implemented_'
'immediately_'
'image_'
'hundreds_'
'hospitals_'
'guests_'
'growth_'
'growing_'
'governments_'
'goods_'
'genetic_'
'garden_'
'forced_'
'flying_'
'floors_'
'file_'
'faith_'
'fair_'
'exciting_'
'equivalent_'
'enjoyed_'
'engaged_'
'energy_'
'economy_'
'easily_'
'earliest_'
'dutch_'
'drug_'
'drive_'
'drawn_'
'displays_'
'differences_'
'devoted_'
'developing_'
'departments_'
'debate_'
'dealt_'
'david_'
'dangerous_'
'dance_'
'critical_'
'costs_'
'core_'
'controlled_'
'contribution_'
'conservation_'
'concern_'
'competition_'
'committee_'
'claimed_'
'civil_'
'chosen_'
'choose_'
'characteristics_'
'chapter_'
'channels_'
'changing_'
'catalogue_'
'cast_'
'buying_'
'bus_'
'award_'
'attending_'
'attached_'
'assessment_'
'assembly_'
'asia_'
'article_'
'armed_'
'arab_'
'applied_'
'apart_'
'answered_'
'africa_'
'add_'
'39_'
'24_'
'21_'
'19_'
'1960s_'
'. ._'
' , ' _'
' ( " _'
'¡_'
'wood_'
'woman_'
'willing_'
'welsh_'
'welfare_'
'websites_'
'weather_'
'volumes_'
'violent_'
'varying_'
'twentieth_'
'tunes_'
'trusts_'
'travelled_'
'totally_'
'thousands_'
'thinking_'
'taste_'
'tasks_'
'sydney_'
'studied_'
'stars_'
'spain_'
'solutions_'
'snow_'
'smoking_'
'situations_'
'singles_'
'singers_'
'signs_'
'signed_'
'sign_'
'shape_'
'settled_'
'sessions_'
'screen_'
'sciences_'
'russian_'
'russia_'
'rule_'
'resort_'
'residential_'
'relationships_'
'relationship_'
'relation_'
'reaching_'
'race_'
'r_'
'questionnaire_'
'queen_'
'purchase_'
'provides_'
'procedures_'
'privately_'
'print_'
'primarily_'
'prices_'
'prayer_'
'port_'
'playing_'
'piece_'
'picture_'
'periods_'
'perfect_'
'patient_'
'partner_'
'parliament_'
'parks_'
'originated_'
'organizations_'
'organised_'
'ordered_'
'opportunities_'
'observed_'
'nhs_'
'newly_'
'minority_'
'miles_'
'meetings_'
'mechanisms_'
'meaning_'
'matches_'
'massive_'
'maintain_'
'locomotives_'
'loans_'
'latest_'
'landscape_'
'justice_'
'jazz_'
'interviewed_'
'internal_'
'interests_'
'injured_'
'initiatives_'
'increasingly_'
'improvement_'
'immediate_'
'illustrated_'
'ill_'
'ideal_'
'hot_'
'heavily_'
'h_'
'guys_'
'guitar_'
'graves_'
'grand_'
'graduate_'
'global_'
'gallery_'
'forget_'
'fled_'
'fitted_'
'fishing_'
'fires_'
'finding_'
'fast_'
'faculty_'
'explained_'
'expensive_'
'existence_'
'exactly_'
'estimated_'
'equipped_'
'environmental_'
'entered_'
'engineering_'
'empire_'
'electricity_'
'election_'
'drawings_'
'detail_'
'describe_'
'descendants_'
'depend_'
'decision_'
'dark_'
'crops_'
'courts_'
'corner_'
'copies_'
'copied_'
'convicted_'
'connection_'
'confidence_'
'conducted_'
'concerns_'
'competitors_'
'coins_'
'climate_'
'clearly_'
'chemical_'
'center_'
'census_'
'cells_'
'casualties_'
'canal_'
'call_'
'build_'
'billion_'
'beliefs_'
'behaviour_'
'banks_'
'audience_'
'attacks_'
'assessed_'
'anywhere_'
'annual_'
'alive_'
'albums_'
'aimed_'
'agents_'
'admitted_'
'acts_'
'actions_'
'accept_'
':_'
'75_'
'54_'
'22_'
'2008_'
'2007_'
'2003_'
'2002_'
'18th_'
' ) , " _'
' $_'
' " ) _'
' _'
'zones_'
'zealand_'
'wrote_'
'writings_'
'worldwide_'
'workforce_'
'wooden_'
'wing_'
'wine_'
'win_'
'wildlife_'
'wet_'
'waters_'
'waste_'
'walks_'
'voted_'
'vietnam_'
'veterans_'
'variations_'
'upper_'
'undertaken_'
'twenty_'
'trips_'
'transferred_'
'trading_'
'tourism_'
'touch_'
'theme_'
'texts_'
'tend_'
'talk_'
'sustainable_'
'survivors_'
'surprised_'
'supporters_'
'supplies_'
'substantial_'
'studio_'
'strongly_'
'store_'
'storage_'
'stock_'
'statistics_'
'squadron_'
'spoken_'
'speakers_'
'sounds_'
'song_'
'somewhat_'
'smith_'
'showing_'
'sheet_'
'sexual_'
'serving_'
'selected_'
'saxon_'
'saving_'
'revealed_'
'resulting_'
'researchers_'
'representation_'
'replacement_'
'remove_'
'releases_'
'registered_'
'refer_'
'recovered_'
'recommended_'
'recognised_'
'raise_'
'rail_'
'quarters_'
'qualified_'
'provisions_'
'prove_'
'proteins_'
'profession_'
'prescribed_'
'premises_'
'positive_'
'portraits_'
'pet_'
'persons_'
'partners_'
'parent_'
'painted_'
'oxford_'
'overseas_'
'outdoor_'
'opinion_'
'operate_'
'october_'
'ocean_'
'occasional_'
'obviously_'
'normally_'
'net_'
'navigation_'
'nations_'
'myself_'
'multiple_'
'moving_'
'mountains_'
'moment_'
'modules_'
'mixed_'
'missions_'
'mini_'
'mills_'
'medium_'
'meat_'
'meant_'
'mean_'
'marked_'
'machine_'
'lord_'
'll_'
'linux_'
'letter_'
'learned_'
'label_'
'june_'
'japan_'
'italy_'
'issued_'
'instance_'
'individually_'
'indicated_'
'incidents_'
'improvements_'
'illegal_'
'humans_'
'http_'
'household_'
'hotels_'
'holiday_'
'hockey_'
'hiv_'
'hero_'
'hear_'
'healthcare_'
'gun_'
'grow_'
'greatly_'
'grades_'
'gold_'
'gives_'
'gets_'
'gain_'
'fund_'
'fresh_'
'frequent_'
'formal_'
'foods_'
'flash_'
'finished_'
'filmed_'
'fight_'
'fifth_'
'feelings_'
'federal_'
'favour_'
'fat_'
'farms_'
'fairly_'
'exported_'
'exceptions_'
'estates_'
'estate_'
'entrance_'
'entertainment_'
'elite_'
'el_'
'eat_'
'driven_'
'door_'
'difficulty_'
'diagnosed_'
'detached_'
'descriptions_'
'database_'
'dancers_'
'counter_'
'conventional_'
'controls_'
'contributed_'
'contemporary_'
'containing_'
'comfortable_'
'coffee_'
'codes_'
'charles_'
'characteristic_'
'certainly_'
'cattle_'
'category_'
'canada_'
'ca_'
'buyers_'
'bridges_'
'borrowed_'
'bedrooms_'
'becoming_'
'bear_'
'battle_'
'bags_'
'australian_'
'august_'
'attributed_'
'attracted_'
'attempted_'
'attempt_'
'atmosphere_'
'athletes_'
'assumed_'
'artist_'
'application_'
'appearances_'
'answer_'
'ancestors_'
'alumni_'
'aim_'
'aid_'
'agency_'
'afterwards_'
'affect_'
'adapted_'
'academy_'
'57_'
'400_'
'1980s_'
'1970s_'
'+ _'
'(_'
' _'
'witnesses_'
'widespread_'
'weight_'
'walking_'
'voting_'
'votes_'
'visited_'
'visible_'
'virtually_'
'villas_'
'victorian_'
'verse_'
'vegetables_'
'vast_'
'varieties_'
'unusual_'
'typically_'
'treaty_'
'transported_'
'transit_'
'trains_'
'theatre_'
'test_'
'territories_'
'terminal_'
'tell_'
'technologies_'
'teach_'
'target_'
'talent_'
'taiwan_'
'supporting_'
'suggested_'
'suggest_'
'sufficient_'
'strength_'
'strategy_'
'storm_'
'steve_'
'spirit_'
'soul_'
'solution_'
'slow_'
'slopes_'
'slightly_'
'sky_'
'skin_'
'situated_'
'sir_'
'silent_'
'settlements_'
'separate_'
'sensors_'
'senior_'
'seeking_'
'seek_'
'sectors_'
'secret_'
'seats_'
'seat_'
'saying_'
'saturday_'
'roof_'
'revolution_'
'reviews_'
'returning_'
'restaurants_'
'responded_'
'requires_'
'requests_'
'representatives_'
'religions_'
'relations_'
'regarded_'
'refused_'
'reflected_'
'reflect_'
'quiet_'
'qualifications_'
'purposes_'
'purchased_'
'protect_'
'proportion_'
'proper_'
'promote_'
'promise_'
'producing_'
'prizes_'
'prize_'
'prefer_'
'posts_'
'portable_'
'pollution_'
'poland_'
'planet_'
'pilots_'
'pilot_'
'philip_'
'phase_'
'perform_'
'participation_'
'parishes_'
'parish_'
'ownership_'
'overall_'
'outstanding_'
'output_'
'ordinary_'
'orders_'
'orchestra_'
'opinions_'
'operated_'
'olds_'
'officially_'
'offices_'
'negative_'
'mud_'
'movie_'
'mount_'
'mother_'
'mobile_'
'ministry_'
'minimum_'
'minimal_'
'millions_'
'milk_'
'mexican_'
'message_'
'medieval_'
'measure_'
'matters_'
'masters_'
'mary_'
'map_'
'manufacturing_'
'makers_'
'maintenance_'
'lyrics_'
'lucky_'
'lots_'
'location_'
'literally_'
'literacy_'
'liberal_'
'lee_'
'leaves_'
'laws_'
'latter_'
'latin_'
'lasting_'
'lands_'
'laboratory_'
'l_'
'journals_'
'joint_'
'january_'
'islamic_'
'iron_'
'input_'
'injury_'
'indiana_'
'index_'
'independence_'
'impression_'
'illustrations_'
'html_'
'host_'
'heights_'
'hebrew_'
'hans_'
'handle_'
'handful_'
'guru_'
'guest_'
'greatest_'
'granted_'
'glasgow_'
'generated_'
'gained_'
'fundamental_'
'fun_'
'friend_'
'friday_'
'fragments_'
'followers_'
'flood_'
'fleet_'
'flat_'
'fired_'
'finance_'
'fellow_'
'fairtrade_'
'failures_'
'factories_'
'eyes_'
'eye_'
'extreme_'
'expertise_'
'experimental_'
'experiencing_'
'exhibition_'
'exclusively_'
'evaluation_'
'episode_'
'entry_'
'emergency_'
'emails_'
'efficient_'
'editor_'
'edition_'
'editing_'
'edited_'
'dvd_'
'drink_'
'dream_'
'dozen_'
'dna_'
'divided_'
'districts_'
'distributed_'
'discussions_'
'discussion_'
'disciplines_'
'dialogue_'
'demands_'
'demand_'
'deeply_'
'dedicated_'
'debt_'
'dating_'
'dated_'
'danger_'
'crowd_'
'covers_'
'count_'
'cottages_'
'correct_'
'contributions_'
'contract_'
'continues_'
'connections_'
'concrete_'
'compounds_'
'compete_'
'commissioned_'
'command_'
'combination_'
'colours_'
'cleaning_'
'civilian_'
'christmas_'
'christians_'
'choir_'
'chief_'
'charity_'
'charges_'
'challenges_'
'centuries_'
'catholic_'
'categories_'
'catch_'
'cannon_'
'candidates_'
'calls_'
'brown_'
'brethren_'
'brands_'
'box_'
'boundaries_'
'bottom_'
'blocks_'
'bigger_'
'begin_'
'bbc_'
'bar_'
'balance_'
'babies_'
'awareness_'
'avoid_'
'automatically_'
'attract_'
'assets_'
'asian_'
'artistic_'
'appearance_'
'apparently_'
'anime_'
'americans_'
'alternative_'
'allowed_'
'afternoon_'
'advertising_'
'adventures_'
'adequate_'
'additions_'
'accurate_'
'accredited_'
'accompanied_'
'accepted_'
'absence_'
'45_'
'1999_'
'1990s_'
'1990_'
'1920s_'
'00_'
'..._'
'&_'
' % ._'
' " ) ._'
'±_'
'© _'
' _'
'zoned_'
'yards_'
'worse_'
'worn_'
'workshops_'
'wonderful_'
'wife_'
'whereas_'
'weak_'
'voluntary_'
'visiting_'
'virus_'
'virtual_'
'v_'
'unlike_'
'universe_'
'understood_'
'undergraduate_'
'typical_'
'tutors_'
'trustees_'
'trouble_'
'tropical_'
'treatments_'
'trails_'
'trail_'
'traced_'
'township_'
'toward_'
'tourists_'
'toronto_'
'tips_'
'tiny_'
'tiger_'
'thus_'
'thirty_'
'tenants_'
'talking_'
'tactics_'
'syndrome_'
'swimming_'
'surrounded_'
'sum_'
'styles_'
'streams_'
'sticks_'
'stick_'
'steps_'
'statement_'
'starting_'
'star_'
'sport_'
'sponsored_'
'spiritual_'
'spiral_'
'southeast_'
'sons_'
'smoke_'
'slaves_'
'skill_'
'skiing_'
'singing_'
'shore_'
'shared_'
'settlers_'
'settlement_'
'session_'
'sequences_'
'semi_'
'selection_'
'secured_'
'seas_'
'satisfied_'
'satisfactory_'
'santa_'
'sand_'
'rice_'
'revised_'
'resulted_'
'restore_'
'restoration_'
'resource_'
'resistance_'
'residues_'
'repair_'
'removal_'
'relating_'
'relate_'
'reissued_'
'reign_'
'regime_'
'regarding_'
'refuge_'
'reduction_'
'reduce_'
'recruitment_'
'recruited_'
'recommendations_'
'readily_'
'rating_'
'rated_'
'rarely_'
'ran_'
'quickly_'
'quick_'
'publicly_'
'proposals_'
'prone_'
'procedure_'
'pro_'
'principle_'
'primula_'
'presumably_'
'president_'
'presentations_'
'premium_'
'precise_'
'posted_'
'poorly_'
'poorer_'
'plus_'
'plot_'
'planets_'
'plains_'
'pits_'
'pitch_'
'pit_'
'phone_'
'peter_'
'perished_'
'path_'
'passing_'
'passenger_'
'passage_'
'partnerships_'
'partially_'
'packed_'
'owner_'
'owed_'
'originals_'
'organic_'
'organ_'
'offers_'
'offenders_'
'odd_'
'occurs_'
'obtain_'
'nursing_'
'nurses_'
'notice_'
'northwest_'
'newer_'
'networks_'
'netherlands_'
'neighbours_'
'nearest_'
'naturally_'
'municipalities_'
'mps_'
'mounted_'
'mound_'
'motorists_'
'moon_'
'mix_'
'missing_'
'minister_'
'minds_'
'mile_'
'microsoft_'
'metropolitan_'
'metres_'
'meters_'
'metal_'
'memorable_'
'mechanical_'
'maybe_'
'mature_'
'marriages_'
'mainland_'
'mac_'
'luxury_'
'lunch_'
'ltd_'
'looks_'
'listening_'
'limits_'
'limit_'
'lighting_'
'lifts_'
'lifetime_'
'lesser_'
'leeds_'
'lady_'
'la_'
'kings_'
'journalists_'
'journal_'
'isolation_'
'iran_'
'involving_'
'invited_'
'investors_'
'interior_'
'integrated_'
'institution_'
'inspection_'
'inscriptions_'
'innovative_'
'inner_'
'inhabited_'
'influential_'
'indigenous_'
'indicators_'
'indicate_'
'impossible_'
'hull_'
'horses_'
'horse_'
'histories_'
'historically_'
'hills_'
'hidden_'
'herself_'
'helps_'
'helping_'
'height_'
'heading_'
'headed_'
'happening_'
'handed_'
'halls_'
'hair_'
'gulf_'
'guidance_'
'grounds_'
'grants_'
'grant_'
'gordon_'
'glass_'
'gifts_'
'genuine_'
'gear_'
'gap_'
'gang_'
'funeral_'
'funds_'
'freedom_'
'francisco_'
'founders_'
'forum_'
'filled_'
'files_'
'festival_'
'feed_'
'farming_'
'fame_'
'facts_'
'express_'
'exposure_'
'expenditure_'
'existed_'
'exhibit_'
'estimates_'
'essays_'
'enjoying_'
'engineers_'
'encourage_'
'empty_'
'emissions_'
'email_'
'electronically_'
'egyptian_'
'eggs_'
'eg_'
'edinburgh_'
'drinking_'
'dress_'
'donated_'
'displayed_'
'disk_'
'disabled_'
'director_'
'difference_'
'differ_'
'diabetes_'
'des_'
'dental_'
'demos_'
'demolished_'
'decide_'
'december_'
'debut_'
'deals_'
'daughters_'
'dare_'
'custom_'
'cup_'
'cult_'
'crossing_'
'criminal_'
'creative_'
'creation_'
'coverage_'
'countryside_'
'counties_'
'corps_'
'cope_'
'contracts_'
'contacts_'
'constitution_'
'consistent_'
'consider_'
'conservative_'
'conjunction_'
'conflict_'
'concerts_'
'concert_'
'concept_'
'concentration_'
'composers_'
'communist_'
'communications_'
'communication_'
'commonly_'
'committees_'
'commitment_'
'commercially_'
'commentary_'
'comment_'
'comedy_'
'colors_'
'code_'
'coastal_'
'clean_'
'circumstances_'
'checked_'
'check_'
'cheap_'
'charities_'
'chain_'
'causes_'
'cash_'
'carrying_'
'carers_'
'captain_'
'camera_'
'busy_'
'bush_'
'brief_'
'breaks_'
'break_'
'brain_'
'bound_'
'bombs_'
'birmingham_'
'bias_'
'beneficial_'
'belonging_'
'belonged_'
'behalf_'
'beds_'
'beauty_'
'balls_'
'ball_'
'badly_'
'avoiding_'
'avenue_'
'audio_'
'attractive_'
'attitudes_'
'assigned_'
'arts_'
'arrested_'
'arranged_'
'arguments_'
'architecture_'
'approval_'
'approach_'
'angry_'
'alternatives_'
'alcohol_'
'agreement_'
'agree_'
'agent_'
'afford_'
'advantages_'
'administrative_'
'addressed_'
'adam_'
'actively_'
'acquired_'
'accounted_'
'accidents_'
'ac_'
'absolutely_'
'abilities_'
'://_'
'95_'
'51_'
'26_'
'1997_'
'1984_'
'1970_'
'1930s_'
'17_'
'150_'
'. [ _'
'. ' _'
'. " _'
' . "_'
' -_'
' ' , '_'
' % ) ._'
' " - _'
'¶_'
' _'
'_'
'_'
'yourself_'
'yorkshire_'
'yellow_'
'writes_'
'writer_'
'wounded_'
'worst_'
'worry_'
'workplace_'
'withdrawn_'
'wings_'
'wines_'
'widely_'
'whatever_'
'wells_'
'welcome_'
'weekend_'
'wear_'
'watson_'
'watched_'
'warriors_'
'wants_'
'waiting_'
'volunteer_'
'voices_'
'vital_'
'villagers_'
'venues_'
'variables_'
'vague_'
'ups_'
'updated_'
'unnecessary_'
'unlikely_'
'underground_'
'twin_'
'twice_'
'turkish_'
'truly_'
'tribes_'
'treat_'
'travelling_'
'translations_'
'traditionally_'
'toys_'
'towers_'
'tower_'
'tourist_'
'tough_'
'tom_'
'toll_'
'title_'
'thrown_'
'threatened_'
'thousand_'
'thirds_'
'theory_'
'thank_'
'testing_'
'terrorism_'
'terrified_'
'termed_'
'tendencies_'
'temple_'
'telling_'
'teenagers_'
'task_'
'tanks_'
'sympathy_'
'switzerland_'
'surprise_'
'surname_'
'super_'
'sunk_'
'suggests_'
'succeeded_'
'suburbs_'
'submitted_'
'struggling_'
'structural_'
'stroke_'
'strict_'
'straightforward_'
'stores_'
'stored_'
'stood_'
'stolen_'
'stocks_'
'stem_'
'starred_'
'stages_'
'stadium_'
'spring_'
'spot_'
'specimens_'
'specified_'
'specification_'
'specially_'
'sophisticated_'
'societies_'
'slip_'
'sleep_'
'sized_'
'sixth_'
'sister_'
'singer_'
'silver_'
'signals_'
'sights_'
'sierra_'
'shots_'
'shortly_'
'shares_'
'shall_'
'shakespeare_'
'settings_'
'server_'
'serials_'
'serbian_'
'send_'
'seconds_'
'searching_'
'scores_'
'scored_'
'scope_'
'scattered_'
'savings_'
'saved_'
'satisfy_'
'samples_'
'saints_'
'safely_'
'roy_'
'row_'
'rough_'
'root_'
'rome_'
'rods_'
'rings_'
'ring_'
'riding_'
'ride_'
'retain_'
'resigned_'
'residences_'
'reputation_'
'representative_'
'replacing_'
'replace_'
'renewal_'
'remote_'
'relied_'
'regulations_'
'regardless_'
'regard_'
'refurbished_'
'references_'
'reference_'
'reducing_'
'reduced_'
'recommend_'
'recognized_'
'reactions_'
'ray_'
'ranks_'
'rank_'
'railroad_'
'raf_'
'racing_'
'races_'
'quotes_'
'quantity_'
'qualities_'
'q_'
'putting_'
'purely_'
'pure_'
'pull_'
'pub_'
'provision_'
'provincial_'
'provinces_'
'proved_'
'protests_'
'prospect_'
'prose_'
'proof_'
'programming_'
'profits_'
'prison_'
'prints_'
'preservation_'
'presence_'
'powered_'
'pounds_'
'possibility_'
'possibilities_'
'ports_'
'polled_'
'politicians_'
'poets_'
'plates_'
'plastic_'
'plain_'
'pitches_'
'pioneers_'
'pine_'
'photo_'
'philosophers_'
'phil_'
'personnel_'
'perfectly_'
'pensions_'
'pension_'
'peak_'
'patterns_'
'pat_'
'paris_'
'parameters_'
'palestine_'
'paint_'
'package_'
'outcome_'
'ottawa_'
'org_'
'orange_'
'opposed_'
'opponents_'
'opens_'
'oliver_'
'ohio_'
'offset_'
'officer_'
'observations_'
'nineteenth_'
'nice_'
'necessarily_'
'namely_'
'multi_'
'msc_'
'monitor_'
'monasteries_'
'moments_'
'modest_'
'mission_'
'miss_'
'minute_'
'ministers_'
'mice_'
'metro_'
'medicines_'
'meals_'
'meal_'
'maximum_'
'maths_'
'massacre_'
'marry_'
'marks_'
'marketing_'
'march_'
'manuscripts_'
'manufacturers_'
'manual_'
'mainstream_'
'magnificent_'
'macedonia_'
'lying_'
'lone_'
'logic_'
'loan_'
'livelihoods_'
'listened_'
'liked_'
'lessons_'
'lesson_'
'legitimate_'
'legislation_'
'legend_'
'lawyers_'
'lanes_'
'lane_'
'laid_'
'lads_'
'labels_'
'kitchen_'
'junior_'
'judges_'
'joy_'
'journeys_'
'jim_'
'itv_'
'islam_'
'introduce_'
'intermediate_'
'interaction_'
'intense_'
'intact_'
'infrastructure_'
'infrared_'
'informed_'
'indians_'
'increasing_'
'increases_'
'inclusion_'
'inappropriate_'
'imported_'
'illustrate_'
'illness_'
'iii_'
'identify_'
'ict_'
'ian_'
'hymns_'
'hungarian_'
'housed_'
'holes_'
'holding_'
'hits_'
'hindu_'
'highlights_'
'heroin_'
'henry_'
'heating_'
'headquartered_'
'hardware_'
'happens_'
'handling_'
'habitat_'
'guns_'
'guitars_'
'guaranteed_'
'grey_'
'golden_'
'goals_'
'goal_'
'giant_'
'germans_'
'genus_'
'generating_'
'gene_'
'gender_'
'galaxies_'
'gaining_'
'furniture_'
'functions_'
'functional_'
'freight_'
'fourth_'
'founded_'
'formerly_'
'formats_'
'formation_'
'formally_'
'folk_'
'fly_'
'flow_'
'floor_'
'flooding_'
'fletcher_'
'flaws_'
'finish_'
'finally_'
'favorite_'
'favor_'
'fatal_'
'fantasy_'
'fantastic_'
'fancy_'
'fail_'
'factory_'
'faced_'
'external_'
'extensively_'
'extended_'
'exports_'
'explore_'
'explanation_'
'expense_'
'expedition_'
'expectation_'
'expanded_'
'exit_'
'exists_'
'execution_'
'executed_'
'excuses_'
'examined_'
'exam_'
'europeans_'
'eu_'
'error_'
'equally_'
'ep_'
'enthusiasm_'
'enrolled_'
'enemy_'
'endemic_'
'enable_'
'employ_'
'emotional_'
'elementary_'
'electronics_'
'elections_'
'elaborate_'
'educated_'
'edge_'
'eating_'
'earning_'
'earned_'
'earn_'
'dÃ_'
'dwellings_'
'duty_'
'dropped_'
'drawing_'
'drama_'
'dragon_'
'downloaded_'
'doors_'
'donations_'
'dogs_'
'documented_'
'document_'
'doctor_'
'dive_'
'distribution_'
'distinctive_'
'disorders_'
'disorder_'
'disaster_'
'developments_'
'designers_'
'description_'
'derive_'
'depict_'
'depends_'
'dependent_'
'demonstrated_'
'definite_'
'deficit_'
'deeper_'
'deen_'
'deck_'
'decisions_'
'databases_'
'danish_'
'dancing_'
'cuts_'
'currency_'
'criteria_'
'criminals_'
'cricket_'
'creating_'
'councils_'
'cool_'
'contribute_'
'contrast_'
'contains_'
'consumption_'
'consultation_'
'consultants_'
'constantly_'
'constant_'
'consolidated_'
'consideration_'
'considerably_'
'consequences_'
'concepts_'
'concentrated_'
'component_'
'commissions_'
'commerce_'
'colonial_'
'colonel_'
'coasts_'
'closer_'
'clinics_'
'cited_'
'circle_'
'chris_'
'choosing_'
'charts_'
'charter_'
'charged_'
'chapters_'
'centred_'
'centers_'
'cell_'
'causing_'
'cathedral_'
'casino_'
'capacity_'
'cabins_'
'cabinet_'
'button_'
'buses_'
'budget_'
'brothers_'
'broadcasting_'
'broadcast_'
'britons_'
'bristol_'
'bringing_'
'bright_'
'breeds_'
'breed_'
'breathing_'
'branded_'
'branches_'
'branch_'
'boxes_'
'bother_'
'borough_'
'bones_'
'bone_'
'blown_'
'blind_'
'bits_'
'biological_'
'bill_'
'benefited_'
'beneath_'
'bell_'
'belfast_'
'beer_'
'beatles_'
'beaches_'
'bases_'
'bars_'
'barbara_'
'baker_'
'backs_'
'backing_'
'bachelor_'
'baby_'
'awarded_'
'attractions_'
'attempts_'
'attacked_'
'associations_'
'assistance_'
'aspect_'
'asking_'
'arrest_'
'architectural_'
'archaeology_'
'approaches_'
'appointments_'
'appearing_'
'apparent_'
'anonymous_'
'animated_'
'andrew_'
'amounts_'
'alternate_'
'alongside_'
'allows_'
'allowing_'
'aids_'
'ages_'
'affiliated_'
'advance_'
'ad_'
'acting_'
'acres_'
'absorbed_'
'aberdeen_'
'\u_'
'> " _'
'=_'
'85_'
'74_'
'700_'
'48_'
'42_'
'2nd_'
'27_'
'1996_'
'1989_'
'1974_'
'1960_'
'"_'
' ..._'
' % - _'
' % , _'
'´_'
'­_'
'¤_'
'£_'
' _'
'z_'
'yue_'
'yield_'
'yesterday_'
'y_'
'worthy_'
'worcester_'
'witness_'
'winning_'
'winners_'
'winner_'
'window_'
'williams_'
'wilderness_'
'wholly_'
'wheel_'
'whatsoever_'
'welcomed_'
'wealthy_'
'wealth_'
'wave_'
'washing_'
'warranty_'
'warranties_'
'warm_'
'wanting_'
'walked_'
'vulnerable_'
'volcanoes_'
'volcanic_'
'visitor_'
'viruses_'
'vineyards_'
'viewed_'
'victoria_'
'victim_'
'viable_'
'vessel_'
'venue_'
'vehicle_'
'valued_'
'validated_'
'vacancies_'
'utilised_'
'upset_'
'universal_'
'unions_'
'unhappy_'
'twelve_'
'tune_'
'trout_'
'trip_'
'trio_'
'trek_'
'travellers_'
'transfers_'
'transcribed_'
'transactions_'
'trainers_'
'traditions_'
'tracking_'
'toxic_'
'tours_'
'torn_'
'tonnes_'
'titled_'
'tie_'
'tickets_'
'threads_'
'thoughts_'
'thereby_'
'themed_'
'theft_'
'theater_'
'th_'
'testament_'
'terry_'
'terraced_'
'terrace_'
'tennessee_'
'tendency_'
'temperatures_'
'temperature_'
'telephone_'
'teeth_'
'tear_'
'tape_'
'tall_'
'talents_'
'syllabuses_'
'switch_'
'swiss_'
'sustained_'
'survives_'
'survival_'
'surgery_'
'surfaces_'
'supposed_'
'suppliers_'
'supplier_'
'sung_'
'suite_'
'suggestions_'
'sugars_'
'sufficiently_'
'suddenly_'
'successive_'
'successes_'
'substantive_'
'subsidies_'
'stunning_'
'struggle_'
'strings_'
'stressed_'
'strathclyde_'
'steering_'
'steam_'
'staying_'
'stationed_'
'starts_'
'stands_'
'staged_'
'springfield_'
'spencer_'
'speech_'
'speculation_'
'spectacular_'
'specifications_'
'specialized_'
'souls_'
'sought_'
'sorry_'
'solely_'
'sole_'
'soil_'
'socialist_'
'snake_'
'slept_'
'sleeping_'
'slave_'
'ski_'
'sketches_'
'sixty_'
'sits_'
'sindbad_'
'sight_'
'siblings_'
'showcase_'
'shores_'
'shocked_'
'shift_'
'shells_'
'sharp_'
'sharing_'
'shapes_'
'shaped_'
'sexually_'
'servers_'
'serve_'
'sentences_'
'sensitive_'
'sending_'
'senate_'
'seattle_'
'seal_'
'scrutiny_'
'scripts_'
'screened_'
'scott_'
'scheduled_'
'satisfaction_'
'satellite_'
'sank_'
'sanctuary_'
'sailors_'
'sailing_'
'sacred_'
'rowing_'
'rose_'
'roots_'
'rolls_'
'rodney_'
'roberts_'
'rituals_'
'ridge_'
'richard_'
'revenues_'
'revenue_'
'returns_'
'restricted_'
'restaurant_'
'responsibilities_'
'respond_'
'respective_'
'reside_'
'reserves_'
'reserve_'
'rescue_'
'requirement_'
'reputations_'
'representations_'
'reporting_'
'repertoire_'
'rent_'
'remarkable_'
'remake_'
'relief_'
'relaxed_'
'relative_'
'regret_'
'register_'
'regiment_'
'refugees_'
'reflection_'
'reef_'
'recreation_'
'recovery_'
'recover_'
'recording_'
'recorder_'
'recipients_'
'recipes_'
'reception_'
'recall_'
'rebellion_'
'reader_'
'raw_'
'ranking_'
'rains_'
'raids_'
'radiation_'
'quotations_'
'questionable_'
'queens_'
'quantities_'
'qualify_'
'puzzles_'
'puzzle_'
'pursue_'
'punished_'
'pulled_'
'publishing_'
'prussia_'
'provider_'
'protestant_'
'promotion_'
'promotes_'
'promoted_'
'prominently_'
'profit_'
'productions_'
'principles_'
'prime_'
'prevent_'
'presidents_'
'preserve_'
'prescription_'
'precipitation_'
'practitioners_'
'powerful_'
'pot_'
'postgraduate_'
'possessed_'
'possess_'
'portuguese_'
'ponds_'
'polluted_'
'politics_'
'polish_'
'pokÃ_'
'poker_'
'pointed_'
'poem_'
'pocket_'
'pleasure_'
'platoon_'
'plato_'
'placement_'
'pictured_'
'physicians_'
'physically_'
'photographers_'
'perspective_'
'personality_'
'personalities_'
'performers_'
'perception_'
'percentage_'
'pennsylvania_'
'penalty_'
'paths_'
'passive_'
'partnership_'
'palm_'
'painting_'
'owe_'
'orthodox_'
'organising_'
'opt_'
'operational_'
'opera_'
'ongoing_'
'ode_'
'occurring_'
'occupation_'
'occasionally_'
'occasion_'
'objectives_'
'nuclear_'
'november_'
'novel_'
'noticed_'
'northeast_'
'nonetheless_'
'nobody_'
'nights_'
'newspaper_'
'newcastle_'
'nevertheless_'
'nest_'
'neil_'
'neighbouring_'
'neighbourhood_'
'neighboring_'
'naval_'
'nationally_'
'narrative_'
'muscle_'
'murray_'
'municipal_'
'mumbai_'
'movements_'
'mouse_'
'mounts_'
'motors_'
'motivated_'
'motion_'
'mortgage_'
'moral_'
'monuments_'
'monthly_'
'monsters_'
'mon_'
'module_'
'mode_'
'millennium_'
'mike_'
'metric_'
'methodist_'
'metals_'
'merseyside_'
'merit_'
'mere_'
'menu_'
'memoirs_'
'membership_'
'mediterranean_'
'medications_'
'medication_'
'meadows_'
'meadow_'
'mayor_'
'maryland_'
'marine_'
'marginal_'
'manner_'
'mammals_'
'maintaining_'
'mailing_'
'magnetic_'
'madagascar_'
'loyal_'
'lowest_'
'loved_'
'louis_'
'losses_'
'los_'
'log_'
'lodge_'
'livery_'
'liverpool_'
'livelihood_'
'lists_'
'listen_'
'lisa_'
'limitations_'
'lifestyle_'
'legs_'
'learnt_'
'leads_'
'leader_'
'le_'
'layer_'
'launch_'
'landscapes_'
'lacking_'
'labelled_'
'kosovo_'
'kosher_'
'korean_'
'korea_'
'km_'
'kinds_'
'keeping_'
'jump_'
'juan_'
'joseph_'
'jones_'
'joining_'
'jimmy_'
'jean_'
'jail_'
'israeli_'
'isaac_'
'investigate_'
'invasion_'
'introduction_'
'intranet_'
'interstate_'
'interpretations_'
'interfaces_'
'interactive_'
'interactions_'
'intensive_'
'integration_'
'insuring_'
'instructors_'
'instructions_'
'institutional_'
'installations_'
'install_'
'inspired_'
'inspiration_'
'inmates_'
'initiative_'
'ingredients_'
'influences_'
'infection_'
'incomes_'
'inc_'
'inadequate_'
'implications_'
'impairment_'
'immigration_'
'imagined_'
'imagination_'
'illnesses_'
'illinois_'
'ideals_'
'ibm_'
'hydro_'
'hut_'
'husband_'
'hundred_'
'houston_'
'hospitality_'
'hopefully_'
'holidays_'
'hole_'
'hitler_'
'hispanic_'
'highways_'
'highlight_'
'highlands_'
'hey_'
'herbs_'
'hence_'
'heated_'
'heat_'
'harry_'
'handwriting_'
'handled_'
'habitats_'
'gÃ_'
'guidelines_'
'guards_'
'guarantee_'
'gross_'
'grew_'
'gravity_'
'graphic_'
'grammar_'
'gradually_'
'gp_'
'google_'
'golf_'
'globe_'
'gift_'
'georgia_'
'geological_'
'geographical_'
'gentle_'
'genes_'
'generic_'
'generations_'
'geese_'
'gauge_'
'gateway_'
'garmin_'
'gaming_'
'galleries_'
'fuller_'
'ftse_'
'fruit_'
'friendship_'
'frank_'
'frames_'
'frame_'
'fox_'
'founder_'
'fought_'
'foster_'
'footage_'
'floods_'
'float_'
'flight_'
'flats_'
'fixed_'
'fitness_'
'fishermen_'
'finest_'
'fe_'
'fathers_'
'fan_'
'false_'
'falling_'
'fairs_'
'facing_'
'faces_'
'extinction_'
'exposed_'
'exploitation_'
'explains_'
'experiment_'
'expenses_'
'expatriates_'
'expansion_'
'exile_'
'exercises_'
'executive_'
'exclusive_'
'examination_'
'evolved_'
'evil_'
'everyday_'
'euro_'
'establishments_'
'essentially_'
'errors_'
'environments_'
'enterprises_'
'ensuring_'
'enormous_'
'enhanced_'
'enemies_'
'ending_'
'encouraged_'
'emperor_'
'emission_'
'emerged_'
'eliminate_'
'eligible_'
'electric_'
'electoral_'
'dwellers_'
'duties_'
'duke_'
'duck_'
'dublin_'
'dry_'
'drop_'
'driving_'
'driver_'
'drilled_'
'downloads_'
'douglas_'
'dome_'
'dollar_'
'dog_'
'doctoral_'
'distinguish_'
'disruption_'
'disputed_'
'discussing_'
'discuss_'
'discrimination_'
'discount_'
'disability_'
'disabilities_'
'digitally_'
'diesel_'
'diaries_'
'diagnosis_'
'devon_'
'destroy_'
'desire_'
'desirable_'
'desert_'
'depression_'
'deposit_'
'depending_'
'density_'
'denied_'
'demonstrate_'
'democratic_'
'demanded_'
'delta_'
'deliver_'
'deleted_'
'delegates_'
'delaware_'
'defined_'
'defenders_'
'decay_'
'decade_'
'dealing_'
'dc_'
'daniel_'
'dangers_'
'dangerously_'
'dances_'
'curved_'
'cured_'
'cultivated_'
'cry_'
'cruise_'
'crown_'
'crossed_'
'crop_'
'criticisms_'
'crews_'
'credits_'
'creatures_'
'cream_'
'courage_'
'couples_'
'coupled_'
'councillors_'
'corporation_'
'cord_'
'copper_'
'convicts_'
'conventions_'
'controversy_'
'controversial_'
'contributors_'
'continuously_'
'continuing_'
'contingent_'
'continental_'
'context_'
'contacted_'
'constructive_'
'consistently_'
'consequently_'
'consequence_'
'congress_'
'concerning_'
'comprehensive_'
'composer_'
'complimentary_'
'compliance_'
'complaints_'
'comparison_'
'compact_'
'commented_'
'combat_'
'colonies_'
'collectors_'
'collaboration_'
'cold_'
'coalition_'
'coaches_'
'coach_'
'cluster_'
'climbing_'
'clever_'
'classroom_'
'cite_'
'circuit_'
'choices_'
'chile_'
'chestnut_'
'chemicals_'
'charted_'
'chapels_'
'championship_'
'challenging_'
'chairman_'
'certification_'
'certificates_'
'certificate_'
'cemetery_'
'celebrity_'
'cavalry_'
'catering_'
'cartoons_'
'caribbean_'
'carbon_'
'capture_'
'cap_'
'cannabis_'
'canals_'
'camps_'
'cambridge_'
'cabin_'
'burnt_'
'burial_'
'brother_'
'brings_'
'brigade_'
'brick_'
'breaking_'
'brand_'
'bradford_'
'boy_'
'boundary_'
'bottoms_'
'bottles_'
'boston_'
'borders_'
'border_'
'boots_'
'boost_'
'booking_'
'bob_'
'blues_'
'blanket_'
'blades_'
'biography_'
'biblical_'
'belongs_'
'begun_'
'beginners_'
'bears_'
'beans_'
'bc_'
'battalion_'
'basketball_'
'barry_'
'ban_'
'ballet_'
'backgrounds_'
'awesome_'
'aviation_'
'availability_'
'autonomous_'
'author_'
'austria_'
'audit_'
'auctioned_'
'auction_'
'attic_'
'attacking_'
'assist_'
'assignments_'
'assessments_'
'arriving_'
'arrival_'
'arlington_'
'arena_'
'archives_'
'archive_'
'architects_'
'archaeological_'
'arabs_'
'arable_'
'approached_'
'applying_'
'applies_'
'applicants_'
'appliances_'
'apple_'
'appeal_'
'apartments_'
'apartment_'
'aol_'
'anyway_'
'anticipated_'
'annually_'
'anglo_'
'angeles_'
'amazon_'
'altered_'
'alpine_'
'ally_'
'allocated_'
'allies_'
'allergies_'
'alleged_'
'albeit_'
'alaska_'
'afraid_'
'affairs_'
'adobe_'
'admit_'
'adjacent_'
'adds_'
'adams_'
'acquaintances_'
'achieving_'
'accuracy_'
'accident_'
'academics_'
'abuse_'
'absent_'
'abbey_'
'abandoned_'
'@_'
'?_'
'99_'
'94_'
'80s_'
'80_'
'71_'
'67_'
'65_'
'63_'
'59_'
'58_'
'56_'
'4th_'
'47_'
'43_'
'41_'
'3rd_'
'34_'
'31_'
'300_'
'23_'
'1995_'
'1986_'
'1985_'
'1983_'
'1981_'
'1980_'
'1975_'
'1952_'
'1950s_'
'1947_'
'1944_'
'1930_'
'17th_'
'15th_'
'1000_'
'. ) _'
' ` _'
' ] ._'
' )_'
' ) ; _'
' ' ( _'
' % ) , _'
' $ _'
' " : _'
' " ( " _'
'­ _'
'© ._'
'¨_'
'¦_'
'¦ ._'
'¥_'
'_'
'zip_'
'yugoslavia_'
'yuan_'
'youths_'
'yard_'
'ws_'
'worshippers_'
'worship_'
'worried_'
'worlds_'
'workings_'
'wore_'
'woodland_'
'wonder_'
'witch_'
'wishing_'
'wisdom_'
'wisconsin_'
'wire_'
'wiped_'
'whale_'
'weird_'
'weekends_'
'weddings_'
'wearing_'
'wcky_'
'wayne_'
'waves_'
'watching_'
'washed_'
'wards_'
'ward_'
'wake_'
'wait_'
'vs_'
'vocational_'
'vocals_'
'visits_'
'visibly_'
'virginia_'
'virgil_'
'vietnamese_'
'vicinity_'
'veterinary_'
'verified_'
'verbal_'
'venetian_'
'variation_'
'variable_'
'valid_'
'utilise_'
'useless_'
'usage_'
'usable_'
'update_'
'upcoming_'
'unwilling_'
'untouched_'
'unsuitable_'
'unix_'
'unincorporated_'
'unfortunately_'
'unfit_'
'unfamiliar_'
'unemployment_'
'undergraduates_'
'undergone_'
'uncomfortable_'
'uncle_'
'unchanged_'
'unaware_'
'un_'
'umbrella_'
'ultimate_'
'tyre_'
'turkey_'
'tumors_'
'tube_'
'tsunami_'
'tsb_'
'trunks_'
'trucks_'
'trenches_'
'treasury_'
'tray_'
'transmitted_'
'transmission_'
'transformation_'
'transfer_'
'trainees_'
'trafficking_'
'tournament_'
'toured_'
'touches_'
'tornado_'
'tops_'
'topic_'
'tool_'
'tissue_'
'tip_'
'tinge_'
'tin_'
'tight_'
'tier_'
'tied_'
'tide_'
'throw_'
'threatening_'
'thread_'
'thoroughly_'
'thingsÃ_'
'thin_'
'thick_'
'therapy_'
'therapist_'
'terrorist_'
'terrier_'
'terrible_'
'terrestrial_'
'tents_'
'telephones_'
'teens_'
'technique_'
'tech_'
'teamwork_'
'teaches_'
'taxi_'
'tap_'
'tang_'
'talked_'
'tags_'
'tackled_'
'tabloids_'
'swimmers_'
'swedish_'
'sweat_'
'swamp_'
'sustain_'
'suspicion_'
'suspected_'
'suspect_'
'surround_'
'surprising_'
'surgeries_'
'supplement_'
'supper_'
'supervision_'
'supernatural_'
'supermarket_'
'superior_'
'sunny_'
'summit_'
'sullivan_'
'suited_'
'suit_'
'sugar_'
'sue_'
'successors_'
'suburb_'
'substantially_'
'submerged_'
'studios_'
'struggles_'
'stronger_'
'strokes_'
'strip_'
'striking_'
'strikes_'
'stretch_'
'stream_'
'strategic_'
'stitches_'
'stereo_'
'steep_'
'statistical_'
'stalin_'
'stained_'
'staffordshire_'
'stafford_'
'ss_'
'spruce_'
'springs_'
'spread_'
'spotted_'
'spots_'
'spite_'
'spirits_'
'spell_'
'spawn_'
'spaces_'
'sonoma_'
'solve_'
'solid_'
'soft_'
'socialism_'
'smooth_'
'smile_'
'smallest_'
'slum_'
'slowly_'
'slaughter_'
'sla_'
'sketch_'
'sizes_'
'sixteenth_'
'sit_'
'sisters_'
'sins_'
'singular_'
'sing_'
'simultaneously_'
'simulation_'
'similarly_'
'similarities_'
'silk_'
'silence_'
'sikhs_'
'sightings_'
'sickness_'
'sick_'
'shuttle_'
'shoreline_'
'shoot_'
'shirts_'
'shire_'
'shipped_'
'sherman_'
'sheltered_'
'shelter_'
'shell_'
'sheffield_'
'sheep_'
'shafts_'
'severn_'
'seventh_'
'settle_'
'serves_'
'servants_'
'serb_'
'separated_'
'sentenced_'
'sentence_'
'sensible_'
'sensation_'
'sends_'
'seminary_'
'seizures_'
'seized_'
'secretary_'
'seasons_'
'seasonal_'
'seaman_'
'seals_'
'sculptures_'
'screens_'
'screaming_'
'scratch_'
'scots_'
'schooling_'
'scholarships_'
'scholarship_'
'scenic_'
'saturdays_'
'samurai_'
'salvation_'
'salvaged_'
'salt_'
'saint_'
'ryan_'
'russell_'
'runway_'
'ruling_'
'rulers_'
'royalty_'
'rounded_'
'ross_'
'rooted_'
'romantic_'
'rocket_'
'rival_'
'ritual_'
'rises_'
'rides_'
'riders_'
'rf_'
'reworked_'
'revolved_'
'revision_'
'revenge_'
'retirement_'
'retains_'
'retail_'
'responsibility_'
'responses_'
'responding_'
'resonance_'
'resolution_'
'resistant_'
'resident_'
'resided_'
'reservoir_'
'researcher_'
'requiring_'
'requested_'
'republican_'
'reprinted_'
'represents_'
'reporters_'
'replies_'
'repeated_'
'remastered_'
'relocated_'
'releasing_'
'relaxing_'
'relatives_'
'relapsed_'
'reins_'
'regulars_'
'registration_'
'registers_'
'reforms_'
'reform_'
'reflecting_'
'redundant_'
'reduces_'
'recycled_'
'recycle_'
'recreational_'
'reconstruction_'
'recognize_'
'reckon_'
'receives_'
'recalled_'
'rebuilt_'
'rebels_'
'rear_'
'readings_'
'readable_'
'reaction_'
'rats_'
'ratio_'
'rat_'
'rapid_'
'ranked_'
'ranging_'
'rangers_'
'ral_'
'rajputs_'
'raising_'
'rainfall_'
'railways_'
'quoted_'
'quietly_'
'quicker_'
'questionnaires_'
'qca_'
'pursuit_'
'pursuing_'
'purple_'
'purity_'
'pumps_'
'pubs_'
'publish_'
'psychic_'
'psychiatric_'
'proves_'
'proven_'
'proud_'
'protocol_'
'protein_'
'protecting_'
'prospective_'
'proprietary_'
'proportions_'
'pronounced_'
'promoting_'
'promised_'
'progressive_'
'progression_'
'progressing_'
'professionally_'
'producers_'
'producer_'
'processors_'
'processed_'
'proceedings_'
'proceed_'
'privacy_'
'prince_'
'prevention_'
'preparing_'
'preparation_'
'pregnancy_'
'preferred_'
'preference_'
'predominantly_'
'precisely_'
'precious_'
'praying_'
'prayed_'
'practising_'
'practiced_'
'pound_'
'pottery_'
'possessions_'
'possession_'
'posing_'
'poses_'
'portions_'
'portfolio_'
'poorest_'
'poll_'
'pole_'
'poirot_'
'poet_'
'pm_'
'plug_'
'plateau_'
'planting_'
'planted_'
'pink_'
'piety_'
'picked_'
'physics_'
'photograph_'
'phones_'
'philosophical_'
'phd_'
'phases_'
'petrol_'
'personalised_'
'persecution_'
'perceived_'
'peoples_'
'pensioners_'
'penny_'
'pending_'
'pegs_'
'peers_'
'peaceful_'
'pdf_'
'pcs_'
'payroll_'
'payment_'
'paws_'
'patented_'
'pastoral_'
'password_'
'passages_'
'particulars_'
'participating_'
'partial_'
'parrot_'
'parked_'
'parasites_'
'parameterised_'
'parallel_'
'paragraph_'
'panels_'
'palestinian_'
'painful_'
'pagan_'
'paf_'
'paddy_'
'pack_'
'owns_'
'overweight_'
'overnight_'
'ovens_'
'outlets_'
'os_'
'orphans_'
'originate_'
'originality_'
'organization_'
'organisational_'
'oral_'
'option_'
'opposite_'
'opponent_'
'openly_'
'omitted_'
'olympic_'
'oldest_'
'offerings_'
'offended_'
'occupations_'
'occasions_'
'observation_'
'objectivity_'
'objective_'
'objections_'
'object_'
'oak_'
'nursery_'
'numbered_'
'notorious_'
'notion_'
'norwich_'
'norwegian_'
'northwestern_'
'norfolk_'
'nonsense_'
'nodes_'
'nobles_'
'ninth_'
'nigh_'
'nigeria_'
'newton_'
'nesting_'
'neighborhoods_'
'negotiations_'
'navy_'
'nationwide_'
'narratives_'
'mythology_'
'mystery_'
'murders_'
'municipality_'
'muhammad_'
'ms_'
'moves_'
'motives_'
'motive_'
'moscow_'
'mosaic_'
'mori_'
'moray_'
'moran_'
'monks_'
'monastic_'
'monastery_'
'molecules_'
'modifications_'
'modelling_'
'mobility_'
'mobiles_'
'mixture_'
'mistakes_'
'mississippi_'
'missionaries_'
'missed_'
'mint_'
'minnesota_'
'mining_'
'miniature_'
'miners_'
'minded_'
'milton_'
'mild_'
'midst_'
'midlands_'
'mgm_'
'mergers_'
'merger_'
'merely_'
'memories_'
'melted_'
'melodies_'
'melbourne_'
'meets_'
'meditation_'
'medicinal_'
'mediator_'
'mediated_'
'medals_'
'measurements_'
'measurement_'
'meanings_'
'matthew_'
'matt_'
'mathematical_'
'matching_'
'masses_'
'martyred_'
'marshes_'
'mars_'
'marking_'
'mari_'
'manufacturer_'
'manually_'
'mansions_'
'manor_'
'managing_'
'mail_'
'magothy_'
'madlib_'
'madison_'
'lyrical_'
'lyon_'
'luck_'
'lp_'
'losing_'
'lose_'
'loose_'
'lonely_'
'locked_'
'locate_'
'loads_'
'loading_'
'load_'
'liver_'
'listing_'
'liquid_'
'lincoln_'
'likes_'
'lights_'
'lift_'
'licensed_'
'licences_'
'liberty_'
'liability_'
'lesions_'
'lens_'
'lends_'
'leisure_'
'legendary_'
'lecturers_'
'lebanon_'
'lease_'
'leagues_'
'layout_'
'lawrence_'
'landscaped_'
'landmarks_'
'landing_'
'landed_'
'lan_'
'lahore_'
'ladies_'
'labourers_'
'labor_'
'lab_'
'kung_'
'knows_'
'klaus_'
'kit_'
'kinetic_'
'kim_'
'ki_'
'kevin_'
'kerry_'
'kerala_'
'kenya_'
'kentucky_'
'kent_'
'keeps_'
'karnak_'
'junk_'
'jumped_'
'july_'
'judgement_'
'jr_'
'johnson_'
'johnny_'
'joe_'
'jewellery_'
'jargon_'
'jacques_'
'isolated_'
'isa_'
'irving_'
'irritable_'
'irregular_'
'iraqi_'
'involves_'
'involvement_'
'investigations_'
'investigation_'
'invested_'
'invest_'
'introducing_'
'intolerance_'
'interview_'
'interventions_'
'interval_'
'internationally_'
'interface_'
'inter_'
'intentions_'
'intention_'
'intensity_'
'intelligent_'
'intellectuals_'
'intake_'
'instrumental_'
'installed_'
'insight_'
'innovations_'
'inn_'
'inherited_'
'informal_'
'infected_'
'inevitably_'
'industrialised_'
'indoor_'
'independently_'
'incredible_'
'incorporate_'
'incomplete_'
'inch_'
'improving_'
'impressive_'
'imports_'
'implementation_'
'imperial_'
'impaired_'
'immigrated_'
'imaginative_'
'illiterate_'
'iguana_'
'identity_'
'identifying_'
'identical_'
'id_'
'icons_'
'hÃ_'
'hurt_'
'hosts_'
'hopes_'
'hop_'
'hood_'
'honorary_'
'honey_'
'holy_'
'holocaust_'
'hollywood_'
'holland_'
'holds_'
'hms_'
'historians_'
'hiring_'
'heroes_'
'herb_'
'helpful_'
'helen_'
'hedgerows_'
'healing_'
'headquarters_'
'harris_'
'hardy_'
'hardship_'
'hamilton_'
'hailed_'
'haganah_'
'gym_'
'gurus_'
'guitarist_'
'guard_'
'grows_'
'grove_'
'gretzky_'
'gregory_'
'greenhouse_'
'greece_'
'grazing_'
'gray_'
'grave_'
'graphics_'
'graphical_'
'grapes_'
'grandfather_'
'grams_'
'graduation_'
'graduated_'
'grade_'
'grace_'
'gps_'
'governed_'
'gods_'
'gnu_'
'gm_'
'glen_'
'glacier_'
'gig_'
'gibson_'
'gerald_'
'generous_'
'genera_'
'geko_'
'gathered_'
'gates_'
'gate_'
'gameplay_'
'gambling_'
'funny_'
'fungi_'
'fundraising_'
'functionality_'
'fruits_'
'freely_'
'fraud_'
'francis_'
'framework_'
'fossils_'
'fossil_'
'forty_'
'fortune_'
'forth_'
'formulating_'
'forming_'
'ford_'
'forcibly_'
'font_'
'focuses_'
'flower_'
'florida_'
'florence_'
'flights_'
'flexible_'
'flag_'
'fitting_'
'fits_'
'firing_'
'firefighters_'
'finnish_'
'finger_'
'findings_'
'finals_'
'filed_'
'fiji_'
'fighter_'
'fictional_'
'females_'
'fei_'
'february_'
'favourites_'
'fault_'
'fate_'
'fastest_'
'fascist_'
'fanatical_'
'faithful_'
'failure_'
'fades_'
'faculties_'
'facility_'
'fabric_'
'exterior_'
'extensions_'
'extending_'
'extend_'
'extant_'
'exquisite_'
'explicitly_'
'explanatory_'
'expert_'
'exercised_'
'exclusion_'
'excluded_'
'exchange_'
'excavation_'
'excavated_'
'exams_'
'exact_'
'evolution_'
'evident_'
'euclid_'
'establishment_'
'establishing_'
'escort_'
'erected_'
'equivalents_'
'equip_'
'equality_'
'epilepsy_'
'enzymes_'
'enzyme_'
'enthusiasts_'
'ensuite_'
'enquiries_'
'enjoyable_'
'endeavour_'
'encouraging_'
'encourages_'
'encountered_'
'encounter_'
'enacted_'
'en_'
'empirical_'
'emphasis_'
'embraced_'
'em_'
'elizabeth_'
'element_'
'electrical_'
'egyptians_'
'editions_'
'edges_'
'ed_'
'eccentric_'
'easter_'
'easier_'
'ease_'
'eas_'
'earthquakes_'
'earthquake_'
'earl_'
'dynasty_'
'dying_'
'dwell_'
'duration_'
'duo_'
'dumping_'
'dubai_'
'drowned_'
'drill_'
'drew_'
'dramatic_'
'draft_'
'downtown_'
'downs_'
'dorset_'
'donation_'
'donald_'
'domaine_'
'domain_'
'dolls_'
'divisions_'
'diving_'
'divine_'
'diverse_'
'disused_'
'distortion_'
'distinguished_'
'distinction_'
'distant_'
'disputes_'
'dispute_'
'displaced_'
'disney_'
'disks_'
'diseases_'
'disbanded_'
'disappeared_'
'disappear_'
'disadvantages_'
'directing_'
'directed_'
'diplomatic_'
'diploma_'
'dilapidated_'
'dignitaries_'
'diamond_'
'diagrams_'
'diabetic_'
'devising_'
'device_'
'developmental_'
'detract_'
'determined_'
'determine_'
'detect_'
'destructive_'
'destined_'
'desktop_'
'deserve_'
'descended_'
'derek_'
'deprived_'
'deposited_'
'demonstrations_'
'demonstration_'
'democrat_'
'demo_'
'definition_'
'definitely_'
'defects_'
'deer_'
'deemed_'
'decorated_'
'decommissioned_'
'declared_'
'dean_'
'dcs_'
'daytime_'
'davis_'
'dave_'
'daughter_'
'dan_'
'damp_'
'damaging_'
'dairy_'
'cyril_'
'cylinder_'
'cycle_'
'currents_'
'cups_'
'cultures_'
'cultivation_'
'cuban_'
'crystal_'
'crucial_'
'criss_'
'crisis_'
'creators_'
'creatine_'
'crazy_'
'crash_'
'craft_'
'cr_'
'cox_'
'cow_'
'counselling_'
'cotton_'
'correspondence_'
'corporations_'
'corporate_'
'corners_'
'coptic_'
'cook_'
'convictions_'
'conversion_'
'convention_'
'convenient_'
'contracted_'
'continuous_'
'contiguous_'
'contest_'
'contents_'
'construct_'
'consisting_'
'considerations_'
'consciousness_'
'conscious_'
'connecting_'
'connecticut_'
'congenital_'
'confusing_'
'confirmed_'
'conferences_'
'confederate_'
'conditioning_'
'conclusion_'
'concerto_'
'concentrate_'
'comprising_'
'composite_'
'complicated_'
'completion_'
'completing_'
'complaint_'
'compilations_'
'competitive_'
'companions_'
'communicating_'
'communicated_'
'commonwealth_'
'commercials_'
'comic_'
'comfort_'
'combined_'
'combine_'
'combatants_'
'column_'
'collect_'
'cognitive_'
'clusters_'
'clouds_'
'cloud_'
'clothing_'
'closing_'
'closest_'
'clock_'
'clips_'
'climbed_'
'cleveland_'
'cleared_'
'clearance_'
'clay_'
'classification_'
'clarke_'
'claiming_'
'citizenship_'
'circulation_'
'circles_'
'cincinnati_'
'chronological_'
'chronic_'
'chromosome_'
'christie_'
'christianity_'
'christ_'
'cholesterol_'
'chip_'
'childhood_'
'chiefly_'
'chest_'
'cherry_'
'cherished_'
'cheese_'
'checking_'
'chatting_'
'charters_'
'chart_'
'chapel_'
'champions_'
'chambers_'
'chalets_'
'ceremony_'
'ceramic_'
'celebrations_'
'ceiling_'
'cease_'
'cds_'
'caves_'
'cats_'
'catholics_'
'catalogued_'
'cassette_'
'carvings_'
'carved_'
'carrots_'
'carries_'
'carmen_'
'caricatures_'
'cargo_'
'carefully_'
'caravan_'
'capability_'
'campaigns_'
'cameo_'
'calories_'
'calendars_'
'calculation_'
'cable_'
'cabinets_'
'bÃ_'
'buttons_'
'butterflies_'
'burn_'
'bulk_'
'builders_'
'builder_'
'bug_'
'buddhists_'
'bruce_'
'brook_'
'bronze_'
'broadway_'
'britainÃ_'
'brighton_'
'briefly_'
'breach_'
'brave_'
'brass_'
'brake_'
'bracket_'
'bow_'
'bournemouth_'
'bothered_'
'boss_'
'boring_'
'bored_'
'bordeaux_'
'bonus_'
'bonds_'
'bond_'
'blessed_'
'blackburn_'
'birders_'
'biology_'
'bike_'
'beta_'
'bernard_'
'bench_'
'behavioural_'
'bedroom_'
'becomes_'
'beat_'
'battles_'
'bathroom_'
'bath_'
'bass_'
'basin_'
'basically_'
'barrio_'
'barriers_'
'barons_'
'backed_'
'axe_'
'avoided_'
'auto_'
'authentic_'
'audiences_'
'attitude_'
'attendance_'
'attainment_'
'athens_'
'assume_'
'associates_'
'assistants_'
'assembled_'
'aside_'
'ashore_'
'artillery_'
'artifacts_'
'arson_'
'arrive_'
'arose_'
'arizona_'
'aristotle_'
'arises_'
'argued_'
'argue_'
'argentina_'
'arbitrary_'
'aramaic_'
'arabic_'
'aquatic_'
'approved_'
'approaching_'
'applicable_'
'appealing_'
'apache_'
'anybody_'
'anxiety_'
'anthony_'
'anthology_'
'answers_'
'announced_'
'annotation_'
'annexed_'
'annealing_'
'anne_'
'animation_'
'andy_'
'andrews_'
'anchor_'
'ancestry_'
'analysed_'
'amusing_'
'amusement_'
'amazingly_'
'aluminum_'
'alliance_'
'allen_'
'allegations_'
'allah_'
'alike_'
'ali_'
'alfred_'
'alexander_'
'alberta_'
'albert_'
'alan_'
'airplay_'
'ahead_'
'ah_'
'agenda_'
'afghan_'
'aesthetic_'
'aerial_'
'advisors_'
'adverse_'
'admission_'
'adjustments_'
'addresses_'
'actor_'
'activists_'
'acted_'
'acquisition_'
'achievement_'
'ace_'
'accuse_'
'accounting_'
'accompanying_'
'abused_'
'abc_'
'98_'
'96_'
'93_'
'900_'
'86_'
'73_'
'70s_'
'68_'
'66_'
'61_'
'600_'
'46_'
'44_'
'38_'
'37_'
'36_'
'360_'
'270_'
'2009_'
'1994_'
'1991_'
'198_'
'1987_'
'1979_'
'1973_'
'1971_'
'1968_'
'1967_'
'1953_'
'1949_'
'1946_'
'1945_'
'1940_'
'1936_'
'1920_'
'1914_'
'1900s_'
'1900_'
'1800s_'
'16th_'
'1500_'
'13th_'
'135_'
'130_'
'09_'
'07_'
'... _'
'+_'
' : ( _'
' , ( _'
' , " " _'
' +_'
' " " _'
'¸_'
'«_'
'¢ ._'
'¡'_'
'_'
' ._'
' ._'
'zwÃ_'
'zoo_'
'zinc_'
'zeiss_'
'zara_'
'yugoslav_'
'youngsters_'
'yoshimoto_'
'yarnton_'
'yale_'
'yahoo_'
'xxv_'
'xbox_'
'wrongly_'
'woven_'
'worthless_'
'worshipping_'
'worldÃ_'
'workshop_'
'workhouse_'
'workersÃ_'
'worker_'
'wording_'
'worcestershire_'
'wool_'
'wooded_'
'wone_'
'wondered_'
'wolfe_'
'wolf_'
'wo_'
'wize_'
'wives_'
'withdrawal_'
'wit_'
'wireless_'
'wired_'
'wins_'
'winds_'
'willis_'
'willie_'
'wildfires_'
'widow_'
'widescreen_'
'widening_'
'wicked_'
'whites_'
'whitehall_'
'wherever_'
'wheels_'
'wheelchair_'
'whatÃ_'
'westinghouse_'
'welcoming_'
'weekdays_'
'weekday_'
'webct_'
'wealthiest_'
'weakened_'
'wax_'
'watts_'
'waterways_'
'waterstones_'
'watercolours_'
'wartime_'
'warning_'
'warner_'
'warmth_'
'warfare_'
'wardrobe_'
'walpole_'
'wallace_'
'walkers_'
'walker_'
'waking_'
'wakefield_'
'waived_'
'waited_'
'wai_'
'wages_'
'vulgar_'
'voucher_'
'volunteering_'
'voluntarily_'
'volleyball_'
'volatile_'
'vocabulary_'
'vitamin_'
'vista_'
'viscosity_'
'visas_'
'vis_'
'virgin_'
'vinyl_'
'villa_'
'viii_'
'viewers_'
'victory_'
'vice_'
'vibrant_'
'vertical_'
'verses_'
'vermont_'
'venus_'
'venture_'
'ventricular_'
'ventilation_'
'venezuelan_'
'vendors_'
'vegetation_'
'vegas_'
'varied_'
'variants_'
'vanished_'
'vanish_'
'vandalized_'
'valuation_'
'valencia_'
'vahan_'
'vaguest_'
'vaccines_'
'uttar_'
'utilities_'
'utilising_'
'usual_'
'usgs_'
'usefulness_'
'usefully_'
'usd_'
'usages_'
'urdu_'
'upright_'
'upgrade_'
'updates_'
'unusable_'
'untreated_'
'unsure_'
'unsuccessful_'
'unsatisfactory_'
'unreleased_'
'unrealistic_'
'unprotected_'
'unnamed_'
'unlimited_'
'unjust_'
'universidad_'
'unity_'
'unionists_'
'uninhabited_'
'uniforms_'
'uniform_'
'unidentified_'
'unhealthy_'
'unhealthily_'
'unfinished_'
'unexpected_'
'unearthed_'
'undoubtedly_'
'undetected_'
'underwater_'
'undertaking_'
'understorey_'
'understandable_'
'underneath_'
'undermine_'
'underlying_'
'underestimate_'
'uncovered_'
'uncommon_'
'unclear_'
'unca_'
'unbelievers_'
'unattainable_'
'umar_'
'ultimately_'
'ulster_'
'ukraine_'
'udupi_'
'tyres_'
'tyneside_'
'twickenham_'
'tutoring_'
'tutorials_'
'turret_'
'turns_'
'turnover_'
'turning_'
'turner_'
'turks_'
'turismo_'
'turbine_'
'tunnels_'
'tumor_'
'tuition_'
'tucson_'
'tub_'
'truth_'
'trunking_'
'truck_'
'trousers_'
'trombone_'
'trodden_'
'trinity_'
'trim_'
'tributary_'
'tributaries_'
'tribe_'
'tribal_'
'tremendous_'
'treating_'
'treasure_'
'travis_'
'travels_'
'traveled_'
'trap_'
'transplant_'
'transient_'
'tramway_'
'tramp_'
'tram_'
'traits_'
'trainer_'
'trailer_'
'tragedy_'
'trafalgar_'
'traders_'
'tracts_'
'tracing_'
'toyota_'
'toy_'
'touched_'
'tory_'
'torre_'
'tope_'
'tony_'
'tonight_'
'tones_'
'ton_'
'tombs_'
'toilets_'
'toilet_'
'toes_'
'todayÃ_'
'titlis_'
'timber_'
'till_'
'tiles_'
'tile_'
'ticket_'
'tibet_'
'tia_'
'ti_'
'thunder_'
'throwing_'
'throated_'
'thriving_'
'threes_'
'threats_'
'threat_'
'thomson_'
'thompson_'
'thickening_'
'theÂ_'
'thermal_'
'theoretical_'
'thematic_'
'thefts_'
'theatrical_'
'theaters_'
'thatcher_'
'textile_'
'testimonials_'
'tesco_'
'terror_'
'terrain_'
'terraces_'
'terra_'
'termination_'
'tenure_'
'tentative_'
'tent_'
'tension_'
'tennis_'
'tends_'
'tempo_'
'templates_'
'televisions_'
'telescope_'
'telegraph_'
'telecom_'
'tel_'
'teh_'
'tedious_'
'technician_'
'technically_'
'tears_'
'teachings_'
'teacher_'
'tcl_'
'taxation_'
'tasting_'
'tarnish_'
'targeted_'
'tar_'
'tamworth_'
'tamil_'
'tamar_'
'tale_'
'tait_'
'tainted_'
'tailored_'
'tailor_'
'tag_'
'tackling_'
'tackle_'
'tabloid_'
'tables_'
'sÃ_'
'syzygium_'
'systematic_'
'syria_'
'synthetic_'
'synchronise_'
'symbol_'
'syllabus_'
'sword_'
'switches_'
'switched_'
'swinging_'
'swing_'
'swept_'
'swan_'
'swallowing_'
'svga_'
'sussex_'
'suspension_'
'suspense_'
'suspended_'
'surroundings_'
'surrey_'
'surrendered_'
'surrender_'
'surreal_'
'surprisingly_'
'surprises_'
'surnames_'
'surgical_'
'surgeon_'
'surfaced_'
'supreme_'
'suppressed_'
'supports_'
'supportive_'
'supplements_'
'supervillains_'
'supernumeraries_'
'supermarkets_'
'superiority_'
'superb_'
'suny_'
'summon_'
'summarised_'
'suitcases_'
'suitability_'
'suicide_'
'succession_'
'succeed_'
'subvert_'
'subunits_'
'subtle_'
'substantiated_'
'substance_'
'subsoil_'
'subsistence_'
'subscribers_'
'submitting_'
'submarine_'
'subfamilies_'
'stuck_'
'struck_'
'strips_'
'stringent_'
'string_'
'strike_'
'strides_'
'strictly_'
'stressful_'
'strengths_'
'streep_'
'straw_'
'strata_'
'strangeness_'
'straining_'
'stowe_'
'stourbridge_'
'storms_'
'storing_'
'stops_'
'stocked_'
'stl_'
'stir_'
'stipulate_'
'stimulants_'
'stereotypes_'
'stephen_'
'stems_'
'stays_'
'statutory_'
'statistically_'
'stating_'
'statin_'
'starters_'
'stamina_'
'stalls_'
'stairs_'
'stable_'
'stability_'
'sri_'
'sr_'
'squires_'
'squeeze_'
'squad_'
'springsteen_'
'sporting_'
'spinal_'
'spin_'
'spike_'
'spiders_'
'spider_'
'sphincter_'
'speeds_'
'speedier_'
'speculative_'
'spectrum_'
'spectrometers_'
'spectacle_'
'specify_'
'specialty_'
'specialists_'
'speaker_'
'spas_'
'spared_'
'spaced_'
'spa_'
'southampton_'
'sourced_'
'soundtrack_'
'sounding_'
'sorts_'
'sooner_'
'songwriting_'
'somewhere_'
'somebody_'
'solitude_'
'solitary_'
'solicitor_'
'solar_'
'soccer_'
'sobriety_'
'snp_'
'snowboarding_'
'snorkel_'
'sniper_'
'snapped_'
'snakes_'
'smuggled_'
'smokers_'
'smelting_'
'smear_'
'smart_'
'slumber_'
'slowing_'
'slope_'
'slogans_'
'sll_'
'slippery_'
'slight_'
'slides_'
'slide_'
'slender_'
'slavic_'
'slavery_'
'slaughtered_'
'slant_'
'skins_'
'skilled_'
'skiers_'
'skeletons_'
'skeletal_'
'skaggs_'
'sixteen_'
'sinking_'
'singled_'
'singapore_'
'simulcast_'
'simulations_'
'simpsons_'
'simplified_'
'simpler_'
'simms_'
'silverton_'
'silicon_'
'sikh_'
'significance_'
'signage_'
'si_'
'shuttling_'
'shut_'
'shrubs_'
'shrouded_'
'shorts_'
'shorter_'
'shortcomings_'
'shortages_'
'shortage_'
'shoes_'
'shockingly_'
'shocking_'
'shoals_'
'shit_'
'shipping_'
'shipbuilding_'
'shingle_'
'sheriffs_'
'shelves_'
'shelters_'
'sheikh_'
'sheets_'
'shed_'
'shattering_'
'shanghai_'
'shaft_'
'shadows_'
'sh_'
'sextus_'
'seventeen_'
'settee_'
'sermons_'
'serbs_'
'sequence_'
'separately_'
'sentimental_'
'sensor_'
'sensitivity_'
'senators_'
'semitic_'
'selves_'
'selling_'
'selections_'
'select_'
'seizure_'
'segregated_'
'segments_'
'sees_'
'seeing_'
'sedimentary_'
'sediment_'
'sedative_'
'secular_'
'sec_'
'seating_'
'searched_'
'scum_'
'scrolls_'
'script_'
'screening_'
'scrap_'
'scoring_'
'scienceÂ_'
'schoolhouse_'
'schooldays_'
'schoolchildren_'
'schedule_'
'scenario_'
'sceaf_'
'scared_'
'scar_'
'scales_'
'sayings_'
'savoy_'
'sauvignon_'
'saucer_'
'saturated_'
'satirical_'
'satires_'
'sat_'
'sarah_'
'sang_'
'sandy_'
'salons_'
'saline_'
'salary_'
'sad_'
'sacramento_'
'sacked_'
'sa_'
'ryde_'
'ruth_'
'rushed_'
'runner_'
'rumours_'
'ruled_'
'ruins_'
'rugged_'
'rugby_'
'rubbish_'
'rs_'
'roxton_'
'rows_'
'routine_'
'rotten_'
'rotation_'
'roofs_'
'romanian_'
'romance_'
'rollo_'
'rogers_'
'rodgers_'
'rodger_'
'rod_'
'rococo_'
'robust_'
'robed_'
'robbie_'
'ro_'
'riveted_'
'rivals_'
'ritalin_'
'risks_'
'ringing_'
'rigorous_'
'rigid_'
'rightly_'
'rid_'
'rhone_'
'rhode_'
'reynard_'
'rewards_'
'rewarding_'
'revolt_'
'revivals_'
'revising_'
'reveal_'
'retreat_'
'retorts_'
'retaining_'
'retailers_'
'retailer_'
'restrictions_'
'restraint_'
'restoule_'
'restoring_'
'resting_'
'respectively_'
'respected_'
'resorts_'
'resolved_'
'resolve_'
'resolutions_'
'resides_'
'reset_'
'reserved_'
'reservations_'
'reservation_'
'resentment_'
'resemblance_'
'researching_'
'request_'
'reproduction_'
'reportedly_'
'replied_'
'replicate_'
'replicas_'
'replacements_'
'repertory_'
'repeatedly_'
'repeat_'
'renowned_'
'renovation_'
'renovated_'
'renewed_'
'rendering_'
'remuneration_'
'removing_'
'remodelled_'
'remits_'
'reminiscent_'
'reminded_'
'remedies_'
'remand_'
'relics_'
'relevance_'
'rejected_'
'reid_'
'rehabilitation_'
'regression_'
'regiments_'
'refusing_'
'refuses_'
'refuse_'
'refugee_'
'reformers_'
'reformer_'
'reformed_'
'reflective_'
'refinance_'
'refers_'
'reefs_'
'reed_'
'reductions_'
'redress_'
'redistributed_'
'redesigned_'
'recruit_'
'recount_'
'reconstructing_'
'reconstructed_'
'recognise_'
'receivers_'
'reasonably_'
'reasonable_'
'reared_'
'reappear_'
'realm_'
'realised_'
'rays_'
'raymond_'
'rational_'
'ratings_'
'rape_'
'ranges_'
'ranger_'
'random_'
'ram_'
'raises_'
'rainy_'
'rainforests_'
'rainforest_'
'rails_'
'railroads_'
'rafi_'
'radius_'
'radium_'
'radioactive_'
'radiate_'
'radar_'
'racial_'
'quran_'
'qur_'
'quirky_'
'quest_'
'query_'
'quantitative_'
'quake_'
'pushing_'
'pushed_'
'purchasing_'
'purbasora_'
'pups_'
'punjab_'
'punishment_'
'pun_'
'puerto_'
'publicity_'
'psychology_'
'psychological_'
'psychoactive_'
'provoking_'
'protÃ_'
'protocols_'
'protestants_'
'protest_'
'prospectus_'
'proposal_'
'proponents_'
'prophets_'
'promotional_'
'prolific_'
'projected_'
'programmed_'
'profoundly_'
'profound_'
'profitably_'
'profiles_'
'profile_'
'professors_'
'professor_'
'procurement_'
'processions_'
'probe_'
'privileged_'
'prisons_'
'priorities_'
'printing_'
'printer_'
'primitive_'
'priests_'
'pricing_'
'prey_'
'prewar_'
'preview_'
'prevents_'
'preventable_'
'prevalent_'
'presumed_'
'prestigious_'
'prestige_'
'preslav_'
'presidential_'
'preserving_'
'prescience_'
'prepare_'
'prehistoric_'
'predicted_'
'predictable_'
'predicament_'
'predecessors_'
'predecessor_'
'precursor_'
'preceding_'
'prayers_'
'praised_'
'praise_'
'prairies_'
'prague_'
'pradesh_'
'practically_'
'powerless_'
'poultry_'
'potomac_'
'potholes_'
'potent_'
'postwar_'
'posthumous_'
'postcards_'
'portsmouth_'
'portfolios_'
'populated_'
'pools_'
'polymer_'
'polo_'
'pollutants_'
'politically_'
'polished_'
'polices_'
'plutonium_'
'plenty_'
'pledges_'
'pleasing_'
'pleasanton_'
'pleasant_'
'playstation_'
'plattsburgh_'
'platform_'
'plated_'
'plate_'
'plaster_'
'plasma_'
'plaques_'
'plantations_'
'placebo_'
'pittsburgh_'
'pistes_'
'piped_'
'pioneer_'
'pins_'
'pinkish_'
'piles_'
'pierre_'
'pier_'
'piedmont_'
'picturesque_'
'picnic_'
'pick_'
'pianos_'
'piano_'
'php_'
'photoshop_'
'photography_'
'photographic_'
'photographer_'
'philosophy_'
'philippines_'
'philadelphia_'
'phenomena_'
'pheasant_'
'pharmaceuticals_'
'ph_'
'pgce_'
'pews_'
'pets_'
'petrarchism_'
'peto_'
'pete_'
'pesticides_'
'personally_'
'perry_'
'perpetrated_'
'permit_'
'perle_'
'perfection_'
'percussion_'
'penn_'
'penalties_'
'peer_'
'pedestrian_'
'pedakonduru_'
'peculiar_'
'pebbles_'
'peat_'
'peaks_'
'pe_'
'pcc_'
'pax_'
'pavilion_'
'patronage_'
'patio_'
'pathfinder_'
'patents_'
'patent_'
'patches_'
'pasture_'
'passwords_'
'passports_'
'passes_'
'partly_'
'partition_'
'particles_'
'parrots_'
'parody_'
'parodic_'
'parliamentary_'
'parker_'
'paradox_'
'parabens_'
'par_'
'pantheon_'
'panic_'
'panel_'
'pane_'
'palaces_'
'pakistani_'
'pakistan_'
'pak_'
'pair_'
'painters_'
'painter_'
'padua_'
'packing_'
'packaging_'
'oxygen_'
'overwhelming_'
'overwhelmed_'
'overlook_'
'overland_'
'overheard_'
'overcome_'
'ovarian_'
'oval_'
'outsiders_'
'outs_'
'outright_'
'outrageous_'
'outlet_'
'outlandish_'
'outfits_'
'outer_'
'outdated_'
'outcomes_'
'outbreak_'
'outback_'
'ought_'
'ottoman_'
'osh_'
'orthopaedic_'
'orthodontic_'
'originates_'
'organs_'
'organist_'
'ordinators_'
'orchids_'
'opus_'
'optional_'
'opted_'
'oppression_'
'oppose_'
'operators_'
'operates_'
'openings_'
'opener_'
'ontario_'
'oneÃ_'
'olympia_'
'olive_'
'oils_'
'oh_'
'offspring_'
'offshore_'
'offs_'
'offensive_'
'offenses_'
'offences_'
'oerlikon_'
'ocd_'
'occupy_'
'obtaining_'
'obstacles_'
'observer_'
'oblique_'
'oblasts_'
'obesity_'
'obese_'
'nutrients_'
'nun_'
'numerical_'
'numeracy_'
'nukem_'
'novices_'
'novelist_'
'nova_'
'noteworthy_'
'notation_'
'nose_'
'normandy_'
'norman_'
'nordic_'
'nooks_'
'nonsecure_'
'nominees_'
'nomad_'
'noise_'
'nod_'
'noble_'
'nobility_'
'nitrogen_'
'nintendo_'
'nil_'
'nikolai_'
'nicks_'
'nicholas_'
'nhl_'
'nfl_'
'newsletter_'
'newest_'
'newcomers_'
'nevada_'
'neutrality_'
'netbsd_'
'nervous_'
'nerves_'
'neptune_'
'nepal_'
'neolithic_'
'neo_'
'nemesis_'
'neither_'
'needles_'
'needing_'
'needful_'
'necks_'
'nd_'
'nazi_'
'navigate_'
'navigable_'
'naughtiness_'
'natives_'
'nationality_'
'natal_'
'nashville_'
'narrated_'
'nannies_'
'nanak_'
'naca_'
'mÃ_'
'mystical_'
'mysteries_'
'mysql_'
'mutual_'
'mutiny_'
'mutilated_'
'mutations_'
'mutation_'
'muskoka_'
'musicals_'
'muscles_'
'murderers_'
'murdered_'
'mural_'
'mundane_'
'mughal_'
'muddy_'
'mucous_'
'mt_'
'mrl_'
'mri_'
'mounting_'
'motorcycles_'
'motor_'
'motley_'
'motivation_'
'mothers_'
'mosques_'
'mosque_'
'mosaics_'
'mortars_'
'mortality_'
'moroccan_'
'morgan_'
'moreover_'
'moorland_'
'mooring_'
'moore_'
'moorcock_'
'mood_'
'montreal_'
'monterrey_'
'monkeys_'
'monday_'
'momentum_'
'mold_'
'modus_'
'modify_'
'moderns_'
'modernised_'
'mock_'
'mixer_'
'mitchell_'
'misuse_'
'misunderstanding_'
'misunderstand_'
'mistake_'
'missile_'
'misleading_'
'miracles_'
'minuscule_'
'minorities_'
'minneapolis_'
'minish_'
'mines_'
'minerals_'
'millionaires_'
'mill_'
'militia_'
'migrated_'
'migrants_'
'mighty_'
'mie_'
'midwest_'
'midnight_'
'midland_'
'microscope_'
'microcode_'
'micro_'
'michigan_'
'miami_'
'metzger_'
'metabolism_'
'messaging_'
'meryl_'
'merged_'
'merchants_'
'mercenaries_'
'mentally_'
'meningitis_'
'memorial_'
'membranes_'
'melting_'
'melodic_'
'mediation_'
'mechanics_'
'mechanically_'
'maÃ_'
'maze_'
'max_'
'maturity_'
'mattel_'
'mats_'
'mathematics_'
'mates_'
'materialised_'
'massacres_'
'massachusetts_'
'masks_'
'marxism_'
'martyrs_'
'martin_'
'marshy_'
'marshall_'
'marsh_'
'marriage_'
'marquis_'
'markers_'
'markedly_'
'maritime_'
'marijuana_'
'marching_'
'marble_'
'marathon_'
'marathi_'
'mapping_'
'manufacture_'
'mantis_'
'mannheim_'
'manipulated_'
'manhattan_'
'mangrove_'
'mandarin_'
'manages_'
'managerial_'
'manager_'
'manageable_'
'malt_'
'mallet_'
'mall_'
'malignant_'
'makkah_'
'maker_'
'majors_'
'maitland_'
'mailings_'
'mailed_'
'maiden_'
'maharashtra_'
'magma_'
'magical_'
'magic_'
'mag_'
'madrid_'
'maddening_'
'mackie_'
'macdonald_'
'macabre_'
'lynbrook_'
'lymphoma_'
'lymphocytic_'
'lyman_'
'luxembourg_'
'lutheran_'
'luminous_'
'lufkin_'
'lucy_'
'lsc_'
'loveteam_'
'lover_'
'lookup_'
'logo_'
'logical_'
'locking_'
'loaded_'
'lng_'
'llyr_'
'lloyds_'
'lizard_'
'lively_'
'litigation_'
'lithuania_'
'listings_'
'listeners_'
'liquefied_'
'linguistic_'
'lineup_'
'linen_'
'linear_'
'lin_'
'limiting_'
'limitation_'
'liking_'
'lightning_'
'lifesign_'
'license_'
'licence_'
'liberia_'
'libel_'
'li_'
'lhasa_'
'lever_'
'letting_'
'lenght_'
'lending_'
'lenders_'
'lender_'
'len_'
'leicester_'
'legislative_'
'legged_'
'legends_'
'legacy_'
'lecture_'
'leather_'
'leased_'
'learns_'
'learners_'
'lavish_'
'laura_'
'launching_'
'launched_'
'latino_'
'lasted_'
'las_'
'larva_'
'landsman_'
'landscaping_'
'landowners_'
'landlord_'
'lambs_'
'lambert_'
'ladders_'
'lactose_'
'lacks_'
'laborers_'
'laboratories_'
'labeled_'
'kyrgyzstan_'
'kuwaiti_'
'kuwait_'
'ks3_'
'ks2_'
'krishna_'
'knowing_'
'knocked_'
'knobs_'
'knives_'
'knights_'
'knight_'
'kmt_'
'klingons_'
'kits_'
'kitchens_'
'kirkby_'
'kingfisher_'
'kine_'
'kindred_'
'killing_'
'kill_'
'kicking_'
'keynote_'
'keyed_'
'keyboard_'
'kennet_'
'kenedy_'
'ken_'
'kelso_'
'keenest_'
'keats_'
'keaton_'
'katrina_'
'karnataka_'
'karate_'
'jury_'
'jur_'
'jupiter_'
'jungle_'
'junction_'
'julie_'
'julian_'
'julia_'
'juice_'
'jubilee_'
'joyce_'
'journalism_'
'jigani_'
'jet_'
'jerusalem_'
'jersey_'
'jenkins_'
'jelly_'
'jeans_'
'janambhumi_'
'jan_'
'jamming_'
'jak_'
'jailed_'
'jaffe_'
'jacob_'
'jackson_'
'jackie_'
'jackets_'
'ix_'
'ito_'
'isps_'
'islamophobia_'
'isis_'
'ischaemic_'
'irritation_'
'irritate_'
'irrigated_'
'irregularly_'
'ironing_'
'iris_'
'irfanview_'
'iranian_'
'ira_'
'ip_'
'iowa_'
'inviting_'
'invisible_'
'investments_'
'investigating_'
'investigated_'
'inventory_'
'inventions_'
'invention_'
'inventing_'
'invented_'
'invaluable_'
'inuit_'
'intruder_'
'interviews_'
'interviewer_'
'intervention_'
'intertidal_'
'interpretation_'
'intermittent_'
'intermediates_'
'interiors_'
'interfering_'
'intentional_'
'intent_'
'intensely_'
'intend_'
'intellectual_'
'integrity_'
'integral_'
'insurer_'
'instrumentals_'
'instrument_'
'instant_'
'inspiring_'
'insights_'
'insertion_'
'insecure_'
'insect_'
'inquiry_'
'innocent_'
'inland_'
'ink_'
'injected_'
'ingredient_'
'ingested_'
'infusion_'
'informative_'
'informally_'
'info_'
'inflation_'
'inflated_'
'inflate_'
'infertile_'
'infections_'
'inexpensive_'
'induction_'
'individuality_'
'indicator_'
'indications_'
'indication_'
'indicates_'
'indianapolis_'
'indexes_'
'indexed_'
'incubation_'
'incorporating_'
'inclined_'
'inches_'
'incapable_'
'improvising_'
'imprisonment_'
'impresses_'
'impotent_'
'importantly_'
'implies_'
'implied_'
'implicated_'
'impairments_'
'immunity_'
'immune_'
'imminent_'
'immigrant_'
'immersed_'
'imaging_'
'imagine_'
'ilm_'
'illustrative_'
'illumination_'
'illegally_'
'il_'
'ignored_'
'ignore_'
'ignorant_'
'idfa_'
'idents_'
'identifiable_'
'icy_'
'ics_'
'icg_'
'icelandic_'
'hypothesis_'
'hypertext_'
'hymn_'
'hydraulic_'
'hybrids_'
'hybrid_'
'huts_'
'hurricane_'
'hungry_'
'hungary_'
'humpback_'
'humour_'
'humorous_'
'humor_'
'humanity_'
'hughes_'
'hr_'
'hq_'
'howell_'
'hosted_'
'horrible_'
'horn_'
'hormone_'
'horace_'
'hoping_'
'hopeful_'
'hooker_'
'hooded_'
'honourable_'
'honour_'
'honors_'
'hong_'
'honestly_'
'honest_'
'homeowners_'
'homeland_'
'holtek_'
'ho_'
'hitchens_'
'hire_'
'hindus_'
'hilton_'
'hillforts_'
'hilarious_'
'hijra_'
'highlighted_'
'hierarchy_'
'hide_'
'hewitt_'
'heterosexual_'
'heritage_'
'herald_'
'henderson_'
'helpers_'
'helmet_'
'hellenistic_'
'hell_'
'helicopter_'
'heavier_'
'heathrow_'
'heath_'
'hearts_'
'healer_'
'headington_'
'headaches_'
'hazel_'
'hawk_'
'hawaiian_'
'havens_'
'hauntingly_'
'haunted_'
'hat_'
'hastings_'
'harrowing_'
'harrah_'
'harper_'
'harmony_'
'harmless_'
'harm_'
'hardly_'
'harbor_'
'hanna_'
'hanging_'
'hang_'
'hamlet_'
'halifax_'
'hairs_'
'hairdryers_'
'hail_'
'haiku_'
'hague_'
'habits_'
'gut_'
'guitarists_'
'guilty_'
'guilt_'
'guiding_'
'guides_'
'guessing_'
'guess_'
'grouped_'
'grip_'
'greeting_'
'greens_'
'greeksun_'
'greasy_'
'grateful_'
'grassroots_'
'grasslands_'
'grasp_'
'grapple_'
'grandparents_'
'grandchildren_'
'gran_'
'graduating_'
'governors_'
'governor_'
'governance_'
'gov_'
'gossip_'
'gospels_'
'gospel_'
'gorge_'
'goodman_'
'goodbye_'
'gondola_'
'goldman_'
'goddess_'
'gmc_'
'glur2_'
'glucose_'
'gloomy_'
'glenn_'
'glazed_'
'glad_'
'glaciers_'
'giuliani_'
'gis_'
'girl_'
'gingerbread_'
'giles_'
'gigs_'
'giants_'
'ghost_'
'geographically_'
'geo_'
'gentlemen_'
'genre_'
'genesis_'
'generator_'
'generals_'
'gembalski_'
'geared_'
'gay_'
'gases_'
'garwood_'
'garrison_'
'garonne_'
'gandhi_'
'gallup_'
'gains_'
'gaelic_'
'futures_'
'futurebus_'
'fused_'
'funk_'
'fungal_'
'fulfilled_'
'fulfill_'
'fulfil_'
'fu_'
'frozen_'
'fronts_'
'frontier_'
'frogs_'
'frightened_'
'frequencies_'
'frei_'
'freezing_'
'freeway_'
'freemasons_'
'freelance_'
'freedoms_'
'franz_'
'frameworks_'
'fragment_'
'fr_'
'foxe_'
'fourteenth_'
'fourteen_'
'foundations_'
'foul_'
'forums_'
'fortunes_'
'forts_'
'formatting_'
'forged_'
'forever_'
'forestry_'
'foresee_'
'forehand_'
'footwear_'
'footing_'
'footballing_'
'focusing_'
'flush_'
'fluid_'
'flows_'
'flourished_'
'flora_'
'flint_'
'flick_'
'flexibility_'
'flew_'
'fleas_'
'flavour_'
'flavors_'
'flattened_'
'fixture_'
'fisherman_'
'firepower_'
'finland_'
'fines_'
'finer_'
'finds_'
'financing_'
'finances_'
'filter_'
'figured_'
'fig_'
'fifty_'
'fifteenth_'
'fifteen_'
'fi_'
'festivals_'
'fellowship_'
'felled_'
'feels_'
'feeding_'
'feedback_'
'federation_'
'fed_'
'feathers_'
'feasible_'
'fears_'
'fbisd_'
'fax_'
'favorable_'
'faulkner_'
'fatigue_'
'faster_'
'fashion_'
'farmland_'
'farmed_'
'fares_'
'fakes_'
'fairy_'
'faint_'
'facilitate_'
'facial_'
'fabulous_'
'fab_'
'f_'
'extras_'
'extrapolation_'
'extinct_'
'extension_'
'expulsions_'
'exposures_'
'exposition_'
'exporters_'
'exponents_'
'explored_'
'explain_'
'experiments_'
'experimenting_'
'expatriate_'
'expand_'
'exotic_'
'exhibits_'
'exhibitors_'
'exemptions_'
'executives_'
'execute_'
'excitement_'
'excise_'
'exchanges_'
'excessive_'
'exceptionally_'
'exceptional_'
'excellence_'
'excel_'
'exceeded_'
'exceed_'
'examining_'
'everywhere_'
'evans_'
'evangelists_'
'eucalyptus_'
'ethics_'
'ethical_'
'ethic_'
'eternal_'
'etching_'
'essay_'
'eruptions_'
'erosion_'
'eroded_'
'eritrean_'
'eritrea_'
'eric_'
'erectile_'
'equifax_'
'equal_'
'episcopal_'
'environmentally_'
'entrepreneur_'
'entity_'
'entirety_'
'enthusiastic_'
'entertaining_'
'entering_'
'ensembles_'
'enormously_'
'enigmatic_'
'enhancements_'
'enhancement_'
'enhance_'
'engineer_'
'engined_'
'engaging_'
'engagements_'
'engage_'
'energies_'
'endured_'
'ends_'
'endorsed_'
'encyclopaedia_'
'encore_'
'enclosure_'
'enabled_'
'emulsion_'
'emulated_'
'emotive_'
'emili_'
'emigrated_'
'emigrate_'
'emigrants_'
'emerson_'
'emergence_'
'emerge_'
'embryonic_'
'embody_'
'embo_'
'elvis_'
'elm_'
'eliminating_'
'eliava_'
'elevation_'
'eighteen_'
'egg_'
'efv_'
'efficiently_'
'efficiency_'
'efficacy_'
'effectiveness_'
'edwin_'
'edward_'
'edmonton_'
'editors_'
'edith_'
'edit_'
'edinburg_'
'ecosystem_'
'economics_'
'economically_'
'ecological_'
'ec_'
'eaten_'
'eastward_'
'earnings_'
'earners_'
'dysfunction_'
'dysentery_'
'dwelling_'
'dwarf_'
'dusty_'
'durham_'
'durability_'
'duplicated_'
'dundee_'
'duncan_'
'dull_'
'ducks_'
'drying_'
'drums_'
'drummer_'
'drove_'
'dropping_'
'drives_'
'dressed_'
'dredd_'
'dreams_'
'drawbacks_'
'draw_'
'drake_'
'drained_'
'drag_'
'dps_'
'downloading_'
'downbeat_'
'dotted_'
'dot_'
'doorstep_'
'doom_'
'dominant_'
'domesday_'
'dollars_'
'dodgy_'
'djs_'
'dizziness_'
'diy_'
'divorce_'
'diverted_'
'diversity_'
'divers_'
'ditch_'
'disturbed_'
'disturbance_'
'distributions_'
'distinctions_'
'distinct_'
'distancing_'
'dist_'
'dissenting_'
'disposal_'
'disorderly_'
'dismissed_'
'dismantled_'
'dislike_'
'dishes_'
'discriminatory_'
'discovering_'
'discoveries_'
'discourse_'
'discontinued_'
'discomfort_'
'disco_'
'disciplinary_'
'disciples_'
'discernable_'
'disastrous_'
'disasters_'
'disarmament_'
'disappointing_'
'disappointed_'
'disadvantage_'
'diocese_'
'dinner_'
'dining_'
'dinajpur_'
'diminish_'
'digimon_'
'differently_'
'differential_'
'dictatorship_'
'dictate_'
'dickinson_'
'dick_'
'dialect_'
'dhv1_'
'dewey_'
'devout_'
'devil_'
'devi_'
'developers_'
'devastating_'
'deucalion_'
'detroit_'
'detrimental_'
'determinism_'
'determining_'
'determiners_'
'determination_'
'detected_'
'detained_'
'detailing_'
'detachment_'
'destruction_'
'destinations_'
'desperate_'
'desk_'
'desired_'
'designing_'
'designer_'
'deserted_'
'descriptors_'
'describes_'
'descent_'
'derby_'
'dera_'
'der_'
'deposits_'
'deployment_'
'depletion_'
'dependencies_'
'dependence_'
'deny_'
'den_'
'demographic_'
'democracy_'
'democracies_'
'demesne_'
'dementia_'
'delivering_'
'delightful_'
'delicate_'
'deliberate_'
'del_'
'deities_'
'defunct_'
'definitions_'
'define_'
'deficient_'
'defensive_'
'defense_'
'defendants_'
'defeat_'
'default_'
'dedication_'
'decrease_'
'decoration_'
'declining_'
'declined_'
'decline_'
'declarations_'
'decimal_'
'decent_'
'decayed_'
'dec_'
'debts_'
'deaf_'
'deadly_'
'dce_'
'dawn_'
'davies_'
'daunting_'
'dats_'
'darwin_'
'darkly_'
'danube_'
'dallas_'
'dad_'
'czech_'
'cyclones_'
'cyclists_'
'customs_'
'customizable_'
'cushioned_'
'curriculum_'
'cures_'
'curate_'
'cuckoo_'
'cuba_'
'ctf_'
'ct_'
'crushing_'
'crusaders_'
'cruises_'
'crosses_'
'croatian_'
'critique_'
'crises_'
'crete_'
'creoles_'
'cremated_'
'creeks_'
'creek_'
'credentials_'
'creations_'
'crampons_'
'crafted_'
'cracker_'
'crack_'
'cpu_'
'cpr_'
'cpi_'
'cpe_'
'cpd_'
'coyotes_'
'cows_'
'cowling_'
'cowardly_'
'covert_'
'covering_'
'cove_'
'cousins_'
'courtroom_'
'coursework_'
'courageous_'
'coupes_'
'counts_'
'costa_'
'corridors_'
'correspond_'
'corrections_'
'corpus_'
'corpora_'
'cornwall_'
'cornish_'
'cork_'
'cordell_'
'copy_'
'coordination_'
'cooperation_'
'cooling_'
'cooked_'
'convinced_'
'conviction_'
'conveyor_'
'conversations_'
'convenience_'
'contributing_'
'contradictory_'
'continually_'
'continual_'
'continent_'
'contested_'
'contentious_'
'contenders_'
'contemporaries_'
'contamination_'
'container_'
'consumed_'
'consultations_'
'construed_'
'constitute_'
'constituency_'
'constellation_'
'conspirators_'
'conspiracy_'
'consisted_'
'consist_'
'considering_'
'conserve_'
'conservatives_'
'consent_'
'consecutive_'
'connector_'
'connect_'
'congregations_'
'congregation_'
'confusion_'
'confrontations_'
'confirmation_'
'confidential_'
'confident_'
'cones_'
'conducting_'
'conduct_'
'conclusions_'
'conception_'
'comrades_'
'computing_'
'compromise_'
'comprised_'
'compound_'
'compositional_'
'composing_'
'comply_'
'complicate_'
'compliant_'
'complexity_'
'complexities_'
'complement_'
'compiler_'
'compiled_'
'compilation_'
'competitions_'
'compelling_'
'commute_'
'communicate_'
'communal_'
'commons_'
'commonplace_'
'committing_'
'commit_'
'commissioning_'
'commands_'
'commanders_'
'commander_'
'commanded_'
'comfortably_'
'comet_'
'comedies_'
'comedians_'
'combining_'
'columns_'
'columbia_'
'colourless_'
'coloured_'
'colorful_'
'colored_'
'colony_'
'collective_'
'collecting_'
'collar_'
'collapses_'
'colin_'
'coles_'
'coire_'
'coincide_'
'cohen_'
'coffin_'
'coffees_'
'coextensive_'
'coding_'
'codasyl_'
'cockney_'
'cochin_'
'coca_'
'coaching_'
'cnaa_'
'clws_'
'clues_'
'clue_'
'closure_'
'cll_'
'clinically_'
'clinic_'
'climatic_'
'cliff_'
'client_'
'click_'
'clichÃ_'
'clergymen_'
'clergy_'
'clearing_'
'clearances_'
'classics_'
'classed_'
'clasp_'
'clark_'
'claire_'
'civilians_'
'ciudad_'
'citizen_'
'circulating_'
'circulated_'
'circular_'
'circuits_'
'circuitry_'
'cinema_'
'cigarette_'
'chrysler_'
'chroniclers_'
'chose_'
'choral_'
'chiu_'
'chips_'
'chipotle_'
'chimney_'
'chili_'
'childcare_'
'chicago_'
'chewing_'
'chess_'
'chesapeake_'
'chennai_'
'chemists_'
'chemistry_'
'chefs_'
'cheerful_'
'checks_'
'cheaply_'
'cheaper_'
'chaucer_'
'chatted_'
'chatrian_'
'chat_'
'charitable_'
'chanted_'
'chang_'
'chameria_'
'challenged_'
'chalk_'
'chair_'
'certified_'
'cerritos_'
'ceremonies_'
'centrally_'
'cement_'
'cello_'
'celibate_'
'celebrities_'
'cedar_'
'ceased_'
'cch_'
'cbs_'
'cave_'
'catholicism_'
'catered_'
'catapulted_'
'catalog_'
'casting_'
'cartridges_'
'cartilage_'
'carrier_'
'carriage_'
'carpenter_'
'carousel_'
'caroline_'
'carnival_'
'carlos_'
'caring_'
'cares_'
'cardiff_'
'captive_'
'capitalist_'
'capitalism_'
'canvases_'
'canvas_'
'cantle_'
'canterbury_'
'canon_'
'candle_'
'candidate_'
'cancers_'
'cancel_'
'campuses_'
'campaigning_'
'cameras_'
'calm_'
'callers_'
'calgary_'
'calendar_'
'cakes_'
'cafÃ_'
'caffeine_'
'cafe_'
'cadet_'
'cachar_'
'cabernet_'
'buxton_'
'buttresses_'
'buster_'
'burton_'
'burst_'
'bursaries_'
'burnham_'
'burned_'
'burke_'
'burgundy_'
'bureau_'
'bunker_'
'bullying_'
'bullied_'
'bull_'
'buffy_'
'buenos_'
'bueller_'
'buddy_'
'buddhist_'
'bubble_'
'bubba_'
'btcv_'
'bt_'
'brÃ_'
'brutal_'
'brunei_'
'browser_'
'brookside_'
'broods_'
'brokers_'
'broke_'
'brochure_'
'broadband_'
'broad_'
'brisbane_'
'brightly_'
'brightest_'
'briggs_'
'bride_'
'brewer_'
'breeding_'
'bred_'
'breasted_'
'breakdown_'
'brazilian_'
'brazil_'
'bravery_'
'brahma_'
'bowie_'
'bowel_'
'bourse_'
'bounds_'
'botanist_'
'botanic_'
'bosnia_'
'borrowing_'
'bordering_'
'bootleg_'
'boom_'
'booklet_'
'booked_'
'boo_'
'bomb_'
'bobby_'
'bo_'
'bluffs_'
'bluebell_'
'blow_'
'blonde_'
'blocking_'
'block_'
'blessings_'
'blessing_'
'bleed_'
'bleak_'
'blanc_'
'blacks_'
'biztalk_'
'bishops_'
'bishop_'
'births_'
'birthday_'
'biotechnology_'
'bios_'
'biopsy_'
'biographical_'
'biodiversity_'
'bins_'
'bingham_'
'binding_'
'bills_'
'billionaires_'
'bikes_'
'biased_'
'bey_'
'berries_'
'berkeley_'
'berhampore_'
'benedict_'
'bendigo_'
'bend_'
'belt_'
'beloved_'
'beloit_'
'belmont_'
'believing_'
'believers_'
'beijing_'
'behold_'
'behavior_'
'behave_'
'beginner_'
'beetle_'
'beecher_'
'bee_'
'bede_'
'beck_'
'becca_'
'beautifully_'
'beatkamp_'
'beaten_'
'bean_'
'bavaria_'
'battling_'
'battlefield_'
'battery_'
'batteries_'
'battalions_'
'baths_'
'batholith_'
'batch_'
'basket_'
'baseline_'
'barwicks_'
'barrens_'
'barrels_'
'barrel_'
'barred_'
'barer_'
'barcelona_'
'barbera_'
'barbecues_'
'banned_'
'bankrupt_'
'bangladeshi_'
'bandwidth_'
'bandish_'
'baltic_'
'ballot_'
'ballarat_'
'ballad_'
'baldness_'
'balcony_'
'balconies_'
'balancing_'
'balanced_'
'baked_'
'bailey_'
'bahÃ_'
'badges_'
'backdrop_'
'axes_'
'avon_'
'aviron_'
'auxiliary_'
'autumn_'
'autorun_'
'autochthonous_'
'austin_'
'auricula_'
'augusto_'
'auctions_'
'auckland_'
'attributes_'
'attributable_'
'attraction_'
'attracting_'
'attendees_'
'attenborough_'
'attempting_'
'attained_'
'atoll_'
'atmospheric_'
'atlantic_'
'atlanta_'
'asylum_'
'aswell_'
'asteroids_'
'assyrian_'
'assignment_'
'asset_'
'assess_'
'assert_'
'assaults_'
'assaulted_'
'assault_'
'aspirations_'
'asleep_'
'ashley_'
'asd_'
'asap_'
'arvs_'
'artisans_'
'artificial_'
'arthur_'
'arteries_'
'arrangement_'
'aromatic_'
'armoured_'
'armies_'
'armenians_'
'armenia_'
'armageddon_'
'arm_'
'aristocratic_'
'arise_'
'arguing_'
'argues_'
'arduous_'
'archived_'
'architect_'
'archetypes_'
'arcana_'
'arcades_'
'arcade_'
'aquarium_'
'aqua_'
'appreciated_'
'appreciate_'
'appointed_'
'appealed_'
'apparatus_'
'apocalypse_'
'aoi_'
'anymore_'
'anxious_'
'antonio_'
'antique_'
'antipsychotics_'
'antidepressants_'
'anticonvulsants_'
'anticipate_'
'antibody_'
'antagonists_'
'answering_'
'anonymously_'
'anoint_'
'annoyed_'
'animators_'
'angle_'
'angels_'
'angelo_'
'angel_'
'anecdotal_'
'anderson_'
'anatomy_'
'anatolia_'
'analysts_'
'anaemia_'
'amused_'
'amsterdam_'
'ampoules_'
'amplified_'
'amounting_'
'amounted_'
'amenities_'
'ambitions_'
'ambiguity_'
'amateur_'
'amar_'
'altogether_'
'altitudes_'
'alternatively_'
'alterations_'
'alphabetical_'
'allotments_'
'allied_'
'alley_'
'allergic_'
'allergens_'
'allegiance_'
'aliens_'
'alice_'
'algerian_'
'alexithymia_'
'alexei_'
'alarm_'
'aladdin_'
'alabama_'
'aisles_'
'airports_'
'airline_'
'airframes_'
'airfields_'
'airfield_'
'aires_'
'aired_'
'airborne_'
'ain_'
'agatha_'
'afield_'
'affection_'
'affecting_'
'aerobatic_'
'aero_'
'advocates_'
'adventurous_'
'advances_'
'adulthood_'
'ads_'
'adr_'
'adopt_'
'admits_'
'admissions_'
'admired_'
'adjustment_'
'adjusting_'
'adjusted_'
'adjust_'
'adjoining_'
'addressing_'
'additionally_'
'addiction_'
'adaptation_'
'acute_'
'acuity_'
'actress_'
'acrobat_'
'acquisitions_'
'acquire_'
'acoustics_'
'acknowledged_'
'acid_'
'achok_'
'achievements_'
'aces_'
'accused_'
'accordingly_'
'accomplishments_'
'accomplish_'
'accompany_'
'accommodations_'
'accommodate_'
'accents_'
'acadÃ_'
'abundant_'
'absurd_'
'abstract_'
'abortion_'
'aboriginal_'
'abolished_'
'aa_'
'\u _'
'> ' _'
':- _'
'91_'
'89_'
'87_'
'84_'
'777_'
'767_'
'750_'
'69_'
'60s_'
'5km_'
'5ht_'
'55s_'
'515_'
'49_'
'32_'
'30s_'
'30mph_'
'29_'
'2650_'
'250_'
'24th_'
'2025_'
'1m_'
'1998_'
'1992_'
'1976_'
'1972_'
'1966_'
'1965_'
'1961_'
'1958_'
'1957_'
'1954_'
'1937_'
'1929_'
'1925_'
'1918_'
'1915_'
'190s_'
'1903_'
'1890_'
'1880_'
'1870s_'
'1859_'
'1843_'
'1840_'
'180_'
'1772_'
'170_'
'160_'
'1530_'
'1200_'
'11th_'
'115_'
'112_'
'03_'
'.._'
'. ) , _'
'. ( _'
'. '_'
'. ' ' _'
'--"_'
'-'_'
'$_'
' = _'
' ; " _'
' : / /_'
' : '_'
' : ' _'
' /_'
' --- _'
' , &_'
' ) : _'
' ) ) _'
' ) ( _'
' ) " _'
' ' , ' _'
' " ) , _'
'Ã¼ber_'
'»_'
'°_'
'­-_'
'« _'
'©-_'
'© : _'
'© , _'
'© ) , _'
'© ( _'
'§_'
'§ ) _'
' _'
' ._'
' ( _'
' ._'
' _'
' ( _'
'_'
' - _'
' , _'
' ] _'
' , _'
' ) ; _'
' _'
'_'
'_'
'~_'
'zyuganov_'
'zytec_'
'zy_'
'zwickau_'
'zumbrota_'
'zooplankton_'
'zoom_'
'zoological_'
'zoolander_'
'zoning_'
'zlatarev_'
'zithers_'
'zippers_'
'zionists_'
'zia_'
'zhou_'
'zgencil_'
'zero_'
'zelenka_'
'zelda_'
'zehrÃ_'
'zees_'
'zebra_'
'zdnetnewsinsightcommentwhite_'
'zbigniew_'
'zapple_'
'zaouia_'
'zanÃ_'
'zamuner_'
'zamora_'
'zambia_'
'zaku_'
'zagreb_'
'zadkine_'
'zablaanski_'
'z1s_'
'yzerman_'
'yuuzhan_'
'yury_'
'yuor_'
'yukos_'
'yukinaga_'
'yui_'
'yuhas_'
'yuen_'
'yu_'
'yttrium_'
'ystein_'
'yr_'
'yoweri_'
'youÃ_'
'youÂ_'
'youssef_'
'yourselves_'
'youngstown_'
'youngest_'
'yoshihiro_'
'yosemite_'
'yoruba_'
'yorkhill_'
'yorker_'
'yona_'
'yon_'
'yojimbo_'
'yohanna_'
'yoga_'
'ymca_'
'yit_'
'yishuv_'
'yields_'
'yielding_'
'yezhov_'
'yeshivah_'
'yes_'
'yerkees_'
'yenikap1_'
'yemen_'
'yeltsin_'
'yelizovo_'
'yeats_'
'yearÃ_'
'yearbook_'
'ye_'
'yates_'
'yarmouth_'
'yardley_'
'yapping_'
'yang_'
'yan_'
'yama_'
'yakumo_'
'yakebitai_'
'yahweh_'
'yagoda_'
'yachts_'
'yacht_'
'ya_'
'xxvi_'
'xu_'
'xterminal_'
'xss_'
'xrf_'
'xml_'
'xj6_'
'xico_'
'xiang_'
'xers_'
'xeon_'
'xdd_'
'xavier_'
'xara_'
'xaiver_'
'x11_'
'wzby_'
'wysong_'
'wysiwyg_'
'wyrd_'
'wyoming_'
'wyndham_'
'wyandot_'
'wurzels_'
'wurlitzer_'
'wto_'
'writemonitors_'
'wringing_'
'wrightÃ_'
'wrexham_'
'wrestling_'
'wrenaissance_'
'wrekin_'
'wrecks_'
'wrecking_'
'wreckers_'
'wrapped_'
'wrap_'
'wp_'
'wove_'
'wound_'
'worthing_'
'worshiped_'
'worrying_'
'worms_'
'worm_'
'workup_'
'worktrain_'
'workstations_'
'workstation_'
'workout_'
'workload_'
'workable_'
'wordy_'
'woosh_'
'woolen_'
'woodwork_'
'woodwind_'
'woodturning_'
'woods_'
'woodroffe_'
'woodpeckers_'
'woodpecker_'
'woodman_'
'woodlands_'
'woodies_'
'woodford_'
'wonders_'
'wondering_'
'wonderfully_'
'wolff_'
'woking_'
'woken_'
'wog_'
'woburn_'
'wncy_'
'wma_'
'wizo_'
'wizard_'
'witticisms_'
'witt_'
'witnessed_'
'withstand_'
'withou_'
'withhold_'
'wither_'
'witchcraft_'
'witchampton_'
'wistful_'
'wist_'
'wishes_'
'wished_'
'wirriyamu_'
'wiring_'
'wires_'
'wipes_'
'wipe_'
'wintringham_'
'wintour_'
'wintering_'
'winterbottom_'
'winningly_'
'wink_'
'wingtips_'
'winged_'
'windsor_'
'windmill_'
'windfall_'
'winchester_'
'wimbledon_'
'wimax_'
'wim_'
'wilson_'
'wilmington_'
'wilmer_'
'willpower_'
'willingness_'
'williamstown_'
'willard_'
'wilkinson_'
'wilberforce_'
'wikipedia_'
'wijewardena_'
'wii_'
'wigs_'
'wiggle_'
'wig_'
'wieringermeer_'
'wielder_'
'width_'
'widgets_'
'widened_'
'widdop_'
'wicksteed_'
'wickedly_'
'wi_'
'whs_'
'whopping_'
'whooping_'
'wholesaler_'
'whodunits_'
'whitman_'
'whitlock_'
'whiter_'
'whitecoat_'
'whiteboard_'
'whispers_'
'whispering_'
'whiskies_'
'whiskey_'
'whirled_'
'whiff_'
'whichever_'
'whereupon_'
'whereby_'
'whenever_'
'wheeze_'
'wheelbase_'
'wheaton_'
'wheat_'
'wheal_'
'wharf_'
'whapmagoostui_'
'whaling_'
'whales_'
'weÂ_'
'wettest_'
'wetlands_'
'westwards_'
'westward_'
'westphalia_'
'westminster_'
'westerns_'
'westerners_'
'wesleyan_'
'werner_'
'werenÃ_'
'wenlock_'
'wenders_'
'welter_'
'welshgirl_'
'wellknown_'
'wellington_'
'wellesz_'
'welded_'
'welch_'
'weights_'
'weighted_'
'weighing_'
'weigh_'
'weekly_'
'wee_'
'wednesday_'
'wedding_'
'wed_'
'webster_'
'webs_'
'webpages_'
'webmuseum_'
'webmaster_'
'webmail_'
'weber_'
'webcomics_'
'weaving_'
'weaves_'
'weavers_'
'weaver_'
'wealthier_'
'weald_'
'weaknesses_'
'weakness_'
'weaker_'
'wcpe_'
'wcc_'
'wc_'
'wbtdc_'
'wb600_'
'wb400_'
'waylaid_'
'waycross_'
'waxbill_'
'waving_'
'waver_'
'waveney_'
'wavelength_'
'waved_'
'wattled_'
'watt_'
'watford_'
'waterway_'
'waterside_'
'watersheds_'
'watershed_'
'watermarked_'
'waterloo_'
'watering_'
'waterfalls_'
'watchmen_'
'watches_'
'watauga_'
'watanabe_'
'wasting_'
'wastes_'
'wasted_'
'wasp_'
'waskow_'
'wash_'
'warwick_'
'warspite_'
'warrior_'
'warrington_'
'warring_'
'warren_'
'warrant_'
'warpath_'
'warming_'
'warmia_'
'warmer_'
'warlock_'
'warehouses_'
'wardens_'
'wap_'
'wankels_'
'wanica_'
'wang_'
'wandoo_'
'wandered_'
'wander_'
'wan_'
'walz_'
'walvoord_'
'walters_'
'walt_'
'walnut_'
'wallowing_'
'wallingford_'
'walford_'
'waldheimia_'
'wakm_'
'wakashk_'
'waitrose_'
'waiters_'
'waistbands_'
'wainscotted_'
'wainfleet_'
'waikapuna_'
'wahhabi_'
'wagtail_'
'wagner_'
'waggoner_'
'waged_'
'waffen_'
'waded_'
'wade_'
'w95_'
'w12_'
'vÃ_'
'vyner_'
'vultures_'
'vulture_'
'vuk_'
'vtsiom_'
'vrije_'
'vres_'
'vpa_'
'voyages_'
'voyager_'
'voyage_'
'vouchers_'
'voter_'
'vot_'
'vortices_'
'vortaro_'
'vorpommern_'
'vong_'
'von_'
'volvo_'
'voluÃ_'
'voluptuous_'
'volumetric3d_'
'volts_'
'volt_'
'volkswagen_'
'volksdeutsche_'
'volcanologist_'
'volcano_'
'vol_'
'voila_'
'void_'
'voicetrack_'
'voiced_'
'vodafone_'
'vocation_'
'vocalists_'
'vocal_'
'vocab_'
'vlj_'
'vivisectional_'
'vivekananda_'
'vivacity_'
'vitamins_'
'visually_'
'visualizing_'
'visualise_'
'visitnh_'
'visitmaine_'
'vishnu_'
'visa_'
'virzi_'
'virtuoso_'
'virtues_'
'virtue_'
'virological_'
'virialized_'
'virial_'
'viral_'
'vipulananda_'
'vipers_'
'violoncello_'
'violet_'
'violations_'
'vinzent_'
'vintners_'
'vin_'
'vilnius_'
'vilma_'
'villlon_'
'vilification_'
'vigorous_'
'vigilanteÂ_'
'viewpoint_'
'vietcong_'
'viennetta_'
'vienna_'
'videos_'
'videoing_'
'videogames_'
'videoconferencing_'
'victories_'
'victor_'
'vicious_'
'vicars_'
'vicar_'
'vibrator_'
'vi_'
'vhs_'
'vh_'
'vh1_'
'vets_'
'veto_'
'vests_'
'vestibule_'
'vested_'
'vest_'
'vertov_'
'vertebrates_'
'versus_'
'versed_'
'versatility_'
'versailles_'
'verona_'
'vernon_'
'verner_'
'vernal_'
'vernaculars_'
'vernacular_'
'vermin_'
'verli_'
'veris_'
'verify_'
'verdure_'
'verdicts_'
'verbs_'
'verbascum_'
'veracity_'
'ventures_'
'ventilators_'
'venom_'
'venice_'
'venezuela_'
'venerable_'
'veneer_'
'vendor_'
'velvet_'
'velocity_'
'velgarth_'
'veins_'
'vegetatively_'
'vegan_'
'veerlapalem_'
'vector_'
'vdb_'
'vc_'
'vaulted_'
'vatican_'
'vat_'
'vassals_'
'varsity_'
'varna_'
'varies_'
'variegated_'
'vapor_'
'vantage_'
'vans_'
'vanets_'
'vancouver_'
'vampires_'
'valves_'
'valuing_'
'values_'
'valproate_'
'valli_'
'vallhermoso_'
'valleys_'
'validation_'
'valentine_'
'valdemar_'
'valadares_'
'vaishya_'
'vaishnavite_'
'vain_'
'vagrants_'
'vacuum_'
'vaccine_'
'vacation_'
'vacated_'
'vacant_'
'vacancy_'
'vab_'
'v97_'
'v2000_'
'uÃ_'
'uzbeks_'
'utub_'
'utterly_'
'uttered_'
'utterances_'
'utter_'
'utrecht_'
'utopians_'
'utilized_'
'utilize_'
'utility_'
'utilitarian_'
'uthman_'
'utfbackslash_'
'utensils_'
'utah_'
'usui_'
'ussr_'
'uss_'
'usher_'
'username_'
'usenet_'
'usda_'
'uscg_'
'usb_'
'usayn_'
'uruguayan_'
'urticating_'
'urns_'
'urn_'
'urgently_'
'urgencies_'
'uretic_'
'urediniospores_'
'urease_'
'urdhvareta_'
'urbanised_'
'uranus_'
'urabe_'
'upwood_'
'upwards_'
'upton_'
'upstate_'
'upstairs_'
'upside_'
'upsetting_'
'uprisings_'
'uplifting_'
'uplifted_'
'uplands_'
'upkeep_'
'upholding_'
'uphill_'
'upheaval_'
'upgrading_'
'upgrades_'
'upgraded_'
'upemba_'
'unwitting_'
'unwind_'
'unwashed_'
'unwanted_'
'unvalidated_'
'untrue_'
'untranslated_'
'untouchability_'
'untold_'
'untidy_'
'untainted_'
'unsympathetic_'
'unsurprisingly_'
'unsteady_'
'unsponsored_'
'unspoiled_'
'unsourced_'
'unsophisticated_'
'unskilled_'
'unshakable_'
'unsettled_'
'unsecured_'
'unsavory_'
'uns_'
'unrwa_'
'unrest_'
'unreservedly_'
'unremarkable_'
'unredeemed_'
'unrecognised_'
'unreasonable_'
'unpublished_'
'unpreserved_'
'unpredicted_'
'unprecedented_'
'unpleasant_'
'unparalleled_'
'unnecessarily_'
'unmoved_'
'unmonitored_'
'unmistakable_'
'unmarried_'
'unmanned_'
'unlucky_'
'unlined_'
'unleashed_'
'unlearning_'
'unleaded_'
'unlabelled_'
'unjustly_'
'unjal_'
'uniÃ³n_'
'universitÃ_'
'universityÃ_'
'universitys_'
'universiteit_'
'universitaria_'
'universally_'
'univac_'
'unitary_'
'uniquely_'
'uninviting_'
'uninterrupted_'
'uninsured_'
'uninspired_'
'unimpressed_'
'unilateralism_'
'unified_'
'unicursal_'
'unicode_'
'unicef_'
'unhistorical_'
'unharmed_'
'unguided_'
'unforgotten_'
'unfolding_'
'unfamiliarity_'
'unfairness_'
'uneventful_'
'unequal_'
'unenlightened_'
'unemployed_'
'unease_'
'undulating_'
'undoubtably_'
'undone_'
'undoing_'
'undo_'
'undetermined_'
'undetectable_'
'underwriter_'
'underwent_'
'underway_'
'undertook_'
'undertakes_'
'undertake_'
'understory_'
'understated_'
'understands_'
'understandably_'
'underpinnings_'
'underpinned_'
'undermanning_'
'underhand_'
'undergrowth_'
'undergoing_'
'undergoes_'
'undergo_'
'underfoot_'
'underfloor_'
'underfed_'
'underdale_'
'undercut_'
'undated_'
'uncrowded_'
'uncredited_'
'uncosted_'
'uncontroversial_'
'unconsciousness_'
'unconscious_'
'unconcerned_'
'uncomprehendingly_'
'uncompensated_'
'uncommitted_'
'uncomfortably_'
'uncirculated_'
'unchallenging_'
'uncertainty_'
'uncertain_'
'unc_'
'unbuilt_'
'unbroken_'
'unbounded_'
'unbleached_'
'unbilled_'
'unbelieving_'
'unbelievable_'
'unavailable_'
'unauthorised_'
'unauditioned_'
'unanswered_'
'unacknowledged_'
'unaccredited_'
'unaccounted_'
'unacceptable_'
'umrcc_'
'ummayyad_'
'uma_'
'ultraviolet_'
'ultraphon_'
'ultra_'
'ulterior_'
'ulcers_'
'ulcer_'
'ukrainians_'
'ukrainian_'
'ujm_'
'uh_'
'ugly_'
'ugarte_'
'ugandan_'
'ufos_'
'uematsu_'
'udf_'
'uden_'
'udders_'
'ucl_'
'uck_'
'uchtreds_'
'uc_'
'ubering_'
'uba_'
'uai_'
'tzmann_'
'tzimisces_'
'tyrell_'
'tyranny_'
'tyramine_'
'typos_'
'typing_'
'typifies_'
'typhoon_'
'typhoid_'
'typeface_'
'typed_'
'tying_'
'tyanpsc_'
'ty_'
'twisty_'
'twisted_'
'twist_'
'twinge_'
'twilight_'
'twigged_'
'twelfth_'
'tweeter_'
'tweed_'
'tver_'
'tuzla_'
'tutorial_'
'tutor_'
'tuscany_'
'turtles_'
'turtle_'
'turrets_'
'turnarounds_'
'turnaround_'
'turgots_'
'turgid_'
'turfmech_'
'turfland_'
'turenne_'
'turchils_'
'turbochargers_'
'turbochannel_'
'tuple_'
'tunnel_'
'tuning_'
'tung_'
'tuna_'
'tummapudi_'
'tumbling_'
'tumble_'
'tularosa_'
'tugging_'
'tudors_'
'tudjman_'
'tuckerÃ_'
'tucked_'
'tuc_'
'tubular_'
'tubes_'
'tuberculosis_'
'tua_'
'tt_'
'tsunamis_'
'tsuna_'
'tsui_'
'tses_'
'tsentr_'
'tseney_'
'trymedia_'
'trustee_'
'truncated_'
'trumpets_'
'trumpeters_'
'trumpeter_'
'trumpet_'
'trumblegast_'
'trudgill_'
'truckers_'
'troupe_'
'trouille_'
'trough_'
'troubled_'
'trotter_'
'tropics_'
'troopships_'
'troopers_'
'trollope_'
'trojan_'
'troilus_'
'troika_'
'trogon_'
'trobar_'
'trixie_'
'trivia_'
'triveni_'
'triumphs_'
'triumphant_'
'triumphal_'
'trite_'
'tripuris_'
'trippers_'
'tripod_'
'triplets_'
'triple_'
'trindade_'
'trimmed_'
'trimley_'
'trilogies_'
'trillion_'
'trilling_'
'triglyceride_'
'triggers_'
'trigger_'
'trieste_'
'trier_'
'tridents_'
'tricky_'
'tricking_'
'trick_'
'tributes_'
'tribute_'
'tribunals_'
'trialling_'
'triadimefon_'
'trespass_'
'tresco_'
'trends_'
'trend_'
'trench_'
'trebled_'
'treble_'
'treats_'
'treaties_'
'treasures_'
'treasured_'
'treacle_'
'treacherous_'
'traxler_'
'traveling_'
'traumatic_'
'trauma_'
'traps_'
'trapped_'
'transverse_'
'transunion_'
'transposons_'
'transposable_'
'transports_'
'transporting_'
'transportes_'
'transporter_'
'transportation_'
'transpiration_'
'transparently_'
'transparency_'
'transmitters_'
'transmitter_'
'transmit_'
'transliterations_'
'translink_'
'transition_'
'transgressing_'
'transformed_'
'transform_'
'transferable_'
'transcriptions_'
'transcribing_'
'transbay_'
'transalations_'
'tranquility_'
'trance_'
'trampolines_'
'traitorous_'
'trailers_'
'tragic_'
'tragedyÂ_'
'tragedies_'
'trafficked_'
'traditionalists_'
'tradesmen_'
'trademark_'
'tract_'
'traces_'
'trace_'
'tpclubs_'
'tp_'
'toyp_'
'toyed_'
'toxins_'
'toxin_'
'townships_'
'townsfolk_'
'touted_'
'toussaint_'
'tournaments_'
'touring_'
'toure_'
'tougher_'
'touchwood_'
'touchscreen_'
'touchdowns_'
'totals_'
'totalling_'
'tosrv_'
'tosio_'
'toshirm_'
'torture_'
'tortuguero_'
'tortoiseshell_'
'tortoises_'
'tors_'
'torrey_'
'torrents_'
'torrential_'
'torpedoed_'
'tories_'
'toreador_'
'tore_'
'tor_'
'topped_'
'topical_'
'toothache_'
'toolbox_'
'tonson_'
'tonkin_'
'tonga_'
'tong_'
'tondi_'
'tonal_'
'tompall_'
'tomorrow_'
'tommy_'
'tomes_'
'tomb_'
'tomatoes_'
'tomato_'
'tomas_'
'tomar_'
'tolkien_'
'tolerant_'
'tolerably_'
'toke_'
'toiletries_'
'toiled_'
'toggle_'
'toffee_'
'tody_'
'todorovi_'
'todhunter_'
'todayÂ_'
'tod_'
'tocs_'
'toboggan_'
'tobacco_'
'toadyism_'
'toad_'
'tns_'
'tn_'
'tms9918_'
'tmk_'
'tm_'
'tla_'
'tito_'
'titan_'
'tissues_'
'tirupathi_'
'tirumala_'
'tirelessly_'
'tired_'
'tire_'
'tirade_'
'tipsy_'
'tipsheet_'
'tipping_'
'tins_'
'tinplate_'
'tinged_'
'tineodidae_'
'timo_'
'timings_'
'timewarp_'
'timetable_'
'timeless_'
'timbered_'
'tima_'
'tim_'
'tiling_'
'tightly_'
'tightened_'
'tighten_'
'tietosanakirja_'
'ties_'
'tierra_'
'tierney_'
'tidy_'
'tidied_'
'tidal_'
'ticks_'
'ticketing_'
'tick_'
'thy_'
'thursday_'
'thunor_'
'thunderbolts_'
'thunderbolt_'
'thun_'
'thumping_'
'thumbhole_'
'thugut_'
'thugs_'
'thrym_'
'thrush_'
'throws_'
'throbs_'
'throats_'
'throat_'
'thrived_'
'thrive_'
'thrillers_'
'thrift_'
'thresher_'
'threaten_'
'threaded_'
'threadbare_'
'thrashing_'
'thoughtful_'
'thou_'
'thoroughbred_'
'thorough_'
'thornhill_'
'thomsonite_'
'thomism_'
'thoe_'
'thistle_'
'thirties_'
'thirsty_'
'thinks_'
'thinkers_'
'thief_'
'thickly_'
'theyÃ_'
'theyÂ_'
'theta_'
'thesprotia_'
'theses_'
'thesaurus_'
'theropods_'
'thermie_'
'thermals_'
'therein_'
'thereafter_'
'theravadan_'
'therapists_'
'therapies_'
'theraphosidae_'
'theosaurus_'
'theorists_'
'theorist_'
'theoretically_'
'theology_'
'theognis_'
'theodoros_'
'themÃ_'
'themsleves_'
'thematically_'
'theatres_'
'thawed_'
'tharparkar_'
'tharios_'
'thanksgiving_'
'thankfully_'
'thankful_'
'thang_'
'thames_'
'tham_'
'thackeray_'
'tha_'
'tffo_'
'texture_'
'textual_'
'textron_'
'textbooks_'
'texian_'
'tewsley_'
'tewari_'
'tetÃ_'
'testimonies_'
'testified_'
'testers_'
'tesla_'
'tertiary_'
'terrorise_'
'terro_'
'terrifyingly_'
'terrifying_'
'terrell_'
'terran_'
'terracotta_'
'terminus_'
'terminated_'
'terminate_'
'terminals_'
'terahertz_'
'ter_'
'tepuis_'
'tenth_'
'tense_'
'tens_'
'tenors_'
'tenor_'
'teniers_'
'tenements_'
'tenement_'
'tending_'
'tender_'
'tended_'
'tenant_'
'tempting_'
'temptations_'
'tempt_'
'tempos_'
'templar_'
'tempers_'
'temperate_'
'temperance_'
'temperament_'
'temper_'
'teller_'
'telford_'
'telescopic_'
'teleporting_'
'teleconferencing_'
'tekke_'
'tekeyan_'
'tejano_'
'teixidor_'
'teit_'
'tees_'
'teenager_'
'tector_'
'techtonic_'
'techinantitla_'
'tebow_'
'teasing_'
'teased_'
'teapots_'
'teammates_'
'teaboy_'
'tea_'
'te_'
'tcp_'
'tc_'
'tbi_'
'tb_'
'taylor_'
'taxpayer_'
'taxonomic_'
'taxidermist_'
'taxicabs_'
'taxes_'
'taxed_'
'tawney_'
'taur_'
'taunts_'
'taunton_'
'taunting_'
'tatsuya_'
'tation_'
'tastefully_'
'tasted_'
'tasmanian_'
'tasked_'
'tashkent_'
'tasc_'
'tas_'
'taryn_'
'tarski_'
'tarred_'
'tarmacced_'
'tariffs_'
'targum_'
'targeting_'
'tarapacana_'
'tarantulas_'
'taranto_'
'taproot_'
'tapping_'
'tapper_'
'tapeworms_'
'tapestries_'
'tapes_'
'taped_'
'tapaculo_'
'tanzanian_'
'tanwar_'
'tantric_'
'tanthof_'
'tantamount_'
'tantalising_'
'tanneries_'
'tanker_'
'tank_'
'tanis_'
'tangible_'
'tanakh_'
'tan_'
'tamouz_'
'tammany_'
'tamils_'
'tamilnadu_'
'tamacon_'
'talty_'
'taloca_'
'tally_'
'talli_'
'tallgrass_'
'tallest_'
'talks_'
'talheim_'
'talented_'
'talas_'
'tal_'
'takashi_'
'tajikistan_'
'tajik_'
'tailings_'
'tailgatingÂ_'
'tailed_'
'taikonaut_'
'tahu_'
'taguchi_'
'tagalog_'
'tadpoles_'
'tadpole_'
'tactless_'
'tactic_'
'taconic_'
'tachycardia_'
'taccone_'
'tabs_'
'tableware_'
'tablets_'
'tabla_'
'tab_'
't4_'
't3_'
't1a_'
'syrians_'
'syracuse_'
'synthesizer_'
'synthesized_'
'syntactic_'
'synoptics_'
'synopsis_'
'synonymous_'
'synonym_'
'synchronizer_'
'synagogue_'
'syn_'
'symptom_'
'symphony_'
'symphonies_'
'sympathisers_'
'sympathetic_'
'symmetry_'
'symbols_'
'symbolism_'
'symbolise_'
'symbolic_'
'sylvia_'
'sylvatica_'
'sylvanian_'
'syllabary_'
'syd_'
'syama_'
'swungÃ_'
'swum_'
'swords_'
'switching_'
'switchblade_'
'switchable_'
'swirls_'
'swirling_'
'swings_'
'swindle_'
'swim_'
'swiftboating_'
'swift_'
'sweethearts_'
'sweeter_'
'sweetbox_'
'sweeps_'
'sweeping_'
'swat_'
'swap_'
'swanson_'
'swamps_'
'swami_'
'swallows_'
'swabia_'
'svay_'
'suÃ_'
'suvs_'
'suva_'
'sustains_'
'sustaining_'
'sustainably_'
'sustainability_'
'suspensions_'
'suspecting_'
'surveys_'
'surveyors_'
'survery_'
'surrogate_'
'surreptitiously_'
'surplus_'
'surgeons_'
'surfing_'
'surfacing_'
'surf_'
'sura_'
'sur_'
'supremely_'
'supraconal_'
'suppressing_'
'suppress_'
'supposedly_'
'supporter_'
'supplemented_'
'supplementation_'
'supervising_'
'supertask_'
'superstitions_'
'superstar_'
'supermassive_'
'superhub_'
'superheroes_'
'superfluous_'
'superbly_'
'suomenlinna_'
'sunsite_'
'sunset_'
'sunrise_'
'sunnyside_'
'sunns_'
'sunni_'
'sunglasses_'
'sunflower_'
'sunderland_'
'sunderby_'
'sundance_'
'sunbirds_'
'sunbird_'
'sunangel_'
'sums_'
'sump_'
'summoning_'
'summoned_'
'summerÂ_'
'summed_'
'summation_'
'summary_'
'summarized_'
'summarise_'
'summaries_'
'sumatra_'
'sulu_'
'sultan_'
'sulfur_'
'sukeban_'
'suits_'
'suites_'
'suggestive_'
'suffrage_'
'suffolk_'
'suetake_'
'sudetenland_'
'sudan_'
'suckered_'
'suchet_'
'sucess_'
'succumbing_'
'succumbed_'
'succulents_'
'successor_'
'succesful_'
'succeeding_'
'subverting_'
'subtropical_'
'subtraction_'
'subtly_'
'subtitles_'
'subtitle_'
'subsystems_'
'substrate_'
'substitutes_'
'substitute_'
'substandard_'
'substances_'
'subsisting_'
'subsidised_'
'subsidiary_'
'subsidiaries_'
'subset_'
'subscription_'
'subscribe_'
'submodules_'
'submissions_'
'submission_'
'subjected_'
'subgroups_'
'subgroup_'
'subdivisions_'
'subcontractors_'
'subcontract_'
'subcontinent_'
'subclass_'
'subcircus_'
'subatomic_'
'su_'
'styrene_'
'stylized_'
'stylistic_'
'stylish_'
'stylised_'
'stylesheets_'
'stylesheet_'
'stv_'
'stuttgart_'
'stupid_'
'stupefying_'
'stumbling_'
'stuffing_'
'studyshop_'
'studying_'
'stuart_'
'strung_'
'struggled_'
'structured_'
'strongholds_'
'strongest_'
'strolling_'
'strive_'
'stripping_'
'strippers_'
'stripped_'
'stripirtps_'
'stricken_'
'striated_'
'stretches_'
'stretched_'
'stresses_'
'strenuous_'
'strengthening_'
'strengthened_'
'streetside_'
'streaming_'
'streak_'
'strays_'
'stray_'
'straws_'
'strawberry_'
'strategies_'
'strasbourg_'
'strangled_'
'strangers_'
'strange_'
'strands_'
'strandli_'
'stranding_'
'strand_'
'strains_'
'straightÃ_'
'straightening_'
'straighten_'
'stragglers_'
'straddle_'
'stoves_'
'stove_'
'storylines_'
'storyline_'
'stortinget_'
'stormy_'
'stormwater_'
'stork_'
'storied_'
'storey_'
'storehouse_'
'stopping_'
'stonyford_'
'stoney_'
'stonework_'
'stoned_'
'stomach_'
'stoke_'
'stoic_'
'stockings_'
'stocking_'
'stockers_'
'stockbroker_'
'stoccareddo_'
'stobbs_'
'stob_'
'stoat_'
'stirred_'
'stink_'
'stings_'
'sting_'
'stimulus_'
'stimulating_'
'stills_'
'stikfas_'
'stigsson_'
'stigmatised_'
'stigma_'
'stigand_'
'sticking_'
'stickers_'
'sticker_'
'sthala_'
'stewart_'
'steven_'
'stevedore_'
'steroids_'
'sterling_'
'sterilizedand_'
'sterile_'
'stereotypical_'
'stepping_'
'steppes_'
'stepped_'
'stent_'
'stemmed_'
'stella_'
'stelios_'
'steles_'
'steinway_'
'steiner_'
'steine_'
'steelman_'
'steampunk_'
'steaming_'
'steamed_'
'steamboat_'
'stealth_'
'steals_'
'stealing_'
'steal_'
'steak_'
'steady_'
'steadily_'
'staves_'
'stave_'
'stavanger_'
'staunchest_'
'statute_'
'stature_'
'statue_'
'statisticians_'
'stationery_'
'stationary_'
'static_'
'statewide_'
'statesmen_'
'starving_'
'starve_'
'startup_'
'startling_'
'startfrontlet_'
'starter_'
'starr_'
'starlets_'
'staring_'
'starforce_'
'staresque_'
'starched_'
'staples_'
'stansted_'
'stanford_'
'standoffish_'
'standmount_'
'standardized_'
'stances_'
'stan_'
'stamps_'
'stampede_'
'stamped_'
'stamford_'
'stallworth_'
'stalling_'
'stall_'
'stalker_'
'stalinist_'
'stalingrad_'
'stakeout_'
'staked_'
'stake_'
'staite_'
'stainless_'
'staining_'
'stain_'
'staid_'
'stagnation_'
'staggered_'
'stag_'
'staffing_'
'staccato_'
'stablemate_'
'stabilise_'
'stabbing_'
'stabat_'
'staatsgalerie_'
'ssp_'
'ssima_'
'sse_'
'ssanyong_'
'srungarapuram_'
'sro_'
'srem_'
'sray_'
'sran_'
'squid_'
'squeal_'
'squash_'
'squares_'
'squared_'
'sql_'
'sq_'
'spyware_'
'spy_'
'spurts_'
'spurs_'
'spur_'
'spunk_'
'spun_'
'spt_'
'sprinters_'
'sprinkled_'
'spri_'
'spreadsheets_'
'spreadsheet_'
'spraying_'
'spray_'
'sprawl_'
'spouse_'
'spotting_'
'sported_'
'spoons_'
'spooning_'
'spoonerisms_'
'spoon_'
'spooklights_'
'spoof_'
'spontaneity_'
'sponsors_'
'sponsor_'
'spoil_'
'splitting_'
'split_'
'splice_'
'splenectomy_'
'splendours_'
'splendid_'
'spitzer_'
'spitting_'
'spits_'
'spiritually_'
'spirituality_'
'spire_'
'spirals_'
'spiny_'
'spinosum_'
'spine_'
'spindle_'
'spikes_'
'spies_'
'spielberg_'
'spices_'
'spherical_'
'sphere_'
'sperm_'
'spengo_'
'spends_'
'spence_'
'spells_'
'spelling_'
'speeches_'
'spedding_'
'speculate_'
'spectroscopy_'
'spectorsoft_'
'spectators_'
'spectaculair_'
'speckled_'
'specifics_'
'specificity_'
'specie_'
'specialties_'
'specials_'
'specialize_'
'specialization_'
'specialities_'
'specialises_'
'specialised_'
'specialisation_'
'spearheaded_'
'spawning_'
'spatiotemporally_'
'spatial_'
'spate_'
'sparta_'
'sparsely_'
'sparse_'
'spars_'
'sparrow_'
'sparklehorse_'
'sparked_'
'spare_'
'spanning_'
'spaniard_'
'spanglish_'
'span_'
'spam_'
'spaghetti_'
'spacious_'
'spacey_'
'spacecraft_'
'soy_'
'sowa_'
'sovereign_'
'southwood_'
'southwest_'
'southernmost_'
'southeastern_'
'sousila_'
'sourcepro_'
'soup_'
'sounded_'
'soundboards_'
'soult_'
'souless_'
'sotheby_'
'sotelo_'
'sosig_'
'soshanguve_'
'sorting_'
'sorter_'
'sorrel_'
'sororities_'
'sorkin_'
'sorcerers_'
'sorcerer_'
'sopranos_'
'soprano_'
'sophomore_'
'sophistication_'
'sonya_'
'sony_'
'songtrack_'
'sonatas_'
'sonata_'
'sometime_'
'somerville_'
'somerset_'
'somehow_'
'somatoform_'
'somatic_'
'somalis_'
'solving_'
'solves_'
'solved_'
'solute_'
'solos_'
'soloists_'
'solitaire_'
'solicited_'
'soles_'
'solero_'
'solent_'
'solaris_'
'solana_'
'sokhcharv_'
'soic127p1199x264_'
'sogod_'
'softly_'
'softer_'
'softball_'
'sofitel_'
'sodhas_'
'sodexho_'
'socrates_'
'sockeye_'
'sockets_'
'socket_'
'sociologists_'
'sociological_'
'societal_'
'socialÂ_'
'socially_'
'socialists_'
'sociable_'
'sobibÃ³r_'
'sober_'
'soaking_'
'snuff_'
'snps_'
'snowflakes_'
'snowfields_'
'snowfall_'
'snowden_'
'snorkle_'
'snorers_'
'snooker_'
'snob_'
'snippets_'
'sniff_'
'snh_'
'sneachda_'
'snapshot_'
'snaps_'
'snap_'
'snails_'
'snail_'
'snacks_'
'snack_'
'smouldering_'
'smoother_'
'smiting_'
'smiths_'
'smiling_'
'smiley_'
'smelled_'
'smb_'
'smak_'
'smae_'
'sluggish_'
'slr_'
'slovenian_'
'slovar_'
'slovak_'
'slot_'
'sloggers_'
'sloboda_'
'sloan_'
'slits_'
'slips_'
'slippers_'
'slipper_'
'slipped_'
'slime_'
'slightest_'
'slid_'
'slice_'
'slewing_'
'sleigh_'
'sledding_'
'sled_'
'slang_'
'slamming_'
'slag_'
'slaf_'
'slab_'
'skyscrapers_'
'skyline_'
'skydiving_'
'skulls_'
'skrzek_'
'skirted_'
'skirt_'
'skipless_'
'skip_'
'skinner_'
'skilful_'
'skies_'
'skewed_'
'skeptiker_'
'skeptical_'
'skenderbeg_'
'skeletor_'
'skee_'
'skaters_'
'ska_'
'siÃ_'
'siwards_'
'sitwell_'
'situating_'
'sitters_'
'sitka_'
'sited_'
'siteadvisor_'
'siskind_'
'sisis_'
'sirmilik_'
'sirius_'
'siriol_'
'sinopec_'
'sinhalese_'
'singh_'
'sinews_'
'sinensis_'
'sindh_'
'sind_'
'sincerity_'
'sincere_'
'sin_'
'simulated_'
'simplistically_'
'simplify_'
'simplification_'
'simon_'
'sim_'
'silvertrust_'
'silt_'
'silly_'
'silchester_'
'silago_'
'sikhism_'
'significantÂ_'
'signatories_'
'signalling_'
'signal_'
'signaalapparaten_'
'sighted_'
'sighs_'
'sien_'
'siemens_'
'siege_'
'sidwell_'
'sidmouth_'
'sideways_'
'sidewalks_'
'sided_'
'sidebottom_'
'sideboard_'
'sickle_'
'sicily_'
'sichel_'
'siberia_'
'sians_'
'shyness_'
'shyam_'
'shy_'
'shutting_'
'shutters_'
'shutter_'
'shughnan_'
'shropshire_'
'shriners_'
'shrine_'
'showrooms_'
'showroom_'
'showmen_'
'showings_'
'showers_'
'shower_'
'showboat_'
'shovkat_'
'shoved_'
'shove_'
'shoulder_'
'shos_'
'shortfin_'
'shortened_'
'shortcuts_'
'shortcodes_'
'shorebirds_'
'shorea_'
'shoppers_'
'shoots_'
'shootout_'
'shooting_'
'shooters_'
'shonny_'
'shona_'
'shohoku_'
'shoelace_'
'shoaib_'
'shmhm_'
'shiva_'
'shirley_'
'shipyards_'
'shipyard_'
'shipments_'
'shipman_'
'shipcare_'
'shining_'
'shimura_'
'shimazu_'
'shillings_'
'shifts_'
'shifted_'
'shibboleths_'
'shias_'
'shi_'
'shetland_'
'sherwood_'
'sheriff_'
'sherds_'
'shepherd_'
'shepard_'
'shelved_'
'shellfish_'
'shelfÂ_'
'shelduck_'
'sheikhs_'
'shehu_'
'sheepskin_'
'sheen_'
'sheckley_'
'shea_'
'shaykh_'
'shawn_'
'shaun_'
'shattered_'
'shatner_'
'shastra_'
'sharper_'
'sharpened_'
'sharon_'
'sharma_'
'shark_'
'shanty_'
'shannon_'
'shanks_'
'shamsher_'
'shameless_'
'shameful_'
'shame_'
'shamanic_'
'shallowly_'
'shallow_'
'shaking_'
'shakes_'
'shake_'
'shahs_'
'shady_'
'shadow_'
'shades_'
'shaded_'
'shade_'
'shaanxi_'
'sgt_'
'sg_'
'seymour_'
'sexuality_'
'sexton_'
'sexteto_'
'sewage_'
'severely_'
'sevan_'
'setzer_'
'settles_'
'seth_'
'seten_'
'setback_'
'servicemen_'
'serviceable_'
'serveral_'
'serpentinite_'
'serpent_'
'serial_'
'sergii_'
'serbia_'
'sequiturs_'
'sequentially_'
'sequential_'
'sequelae_'
'septic_'
'septeto_'
'seppo_'
'seperate_'
'separator_'
'separating_'
'separability_'
'sentries_'
'sentai_'
'sensual_'
'sensu_'
'sensibly_'
'senses_'
'sensationalist_'
'sensational_'
'sendmail_'
'senator_'
'semolina_'
'semite_'
'seminoles_'
'seminar_'
'semester_'
'selznak_'
'sells_'
'seller_'
'selecting_'
'seland_'
'seimas_'
'segue_'
'segregation_'
'segment_'
'seeping_'
'seemingly_'
'seeker_'
'seeds_'
'seedlings_'
'seedings_'
'seed_'
'sediments_'
'securitizations_'
'securitisations_'
'securities_'
'securing_'
'securely_'
'sectional_'
'sect_'
'secretly_'
'secretaries_'
'seaway_'
'seaters_'
'seated_'
'seatbelts_'
'seasick_'
'seamless_'
'seamingly_'
'sealings_'
'seafortress_'
'seac_'
'se_'
'sdlp_'
'scunthorpe_'
'sculptors_'
'sculptor_'
'sculpted_'
'scull_'
'scuffing_'
'scuff_'
'scsaba_'
'scruffy_'
'scruff_'
'scrophulariaceae_'
'scrooge_'
'scriptwriters_'
'scripted_'
'screw_'
'screenplay_'
'screeched_'
'scratches_'
'scratcher_'
'scratched_'
'scrapped_'
'scraping_'
'scrapie_'
'scrambles_'
'scouts_'
'scoundrels_'
'scoter_'
'scorer_'
'scooters_'
'scooter_'
'scoffed_'
'scoff_'
'scmh_'
'sclf_'
'scioto_'
'scintillate_'
'scientology_'
'scientologists_'
'scientist_'
'scientifically_'
'sci_'
'schwartz_'
'schutz_'
'schulze_'
'schrÃ_'
'schoolÃ_'
'schoolnmhs_'
'schoolday_'
'scholl_'
'scholarly_'
'scholar_'
'schola_'
'schnitzler_'
'schnack_'
'schism_'
'schilling_'
'scheyville_'
'schematic_'
'scheherazade_'
'schedules_'
'scharoun_'
'sceptical_'
'scented_'
'scenically_'
'scenarios_'
'scavenged_'
'scattering_'
'scatter_'
'scary_'
'scarily_'
'scarcely_'
'scapegoats_'
'scans_'
'scanners_'
'scanner_'
'scanned_'
'scandinavians_'
'scandalous_'
'scan_'
'scams_'
'scaly_'
'scabies_'
'scabbard_'
'sc53116_'
'sbir_'
'sbgi_'
'sayana_'
'saxophonists_'
'saxony_'
'sax_'
'savoring_'
'saviour_'
'savers_'
'saveral_'
'savannah_'
'saury_'
'sauna_'
'saudi_'
'sauces_'
'satori_'
'satisfying_'
'satire_'
'satellites_'
'satcure_'
'satanic_'
'satan_'
'sastri_'
'saruman_'
'sars_'
'sarita_'
'sareshke_'
'sarcophagi_'
'sarbanes_'
'sarandÃ_'
'sara_'
'saptahik_'
'saphead_'
'santÃ_'
'sans_'
'sankey_'
'sanitary_'
'sangrahas_'
'sangha_'
'sangeet_'
'sanford_'
'sane_'
'sandwiches_'
'sandstone_'
'sandspit_'
'sands_'
'sandhu_'
'sanders_'
'sanded_'
'sanctioned_'
'sanctified_'
'sanc_'
'sanamahism_'
'sanamahi_'
'samuel_'
'samsung_'
'samrat_'
'sampling_'
'sampler_'
'samoa_'
'sam_'
'salzburg_'
'salvin_'
'salvage_'
'salvadore_'
'salutary_'
'salomon_'
'salmon_'
'salient_'
'salicylic_'
'salga_'
'salesmen_'
'salesman_'
'salesian_'
'salem_'
'saleh_'
'salaries_'
'salaried_'
'salak_'
'saladin_'
'sakra_'
'sakhalin_'
'sainsbury_'
'sailed_'
'sail_'
'saharan_'
'sahara_'
'sage_'
'safsaf_'
'safer_'
'saeb_'
'saduq_'
'sadly_'
'sadie_'
'sadf_'
'saddler_'
'saddam_'
'sadamitsu_'
'sacyr_'
'sacrificing_'
'sacrificed_'
'sacrifice_'
'sacres_'
'sacraments_'
'sachs_'
'sabri_'
'sabine_'
'sabarimala_'
's5_'
's2_'
'rÃ_'
'ryzhov_'
'ryrie_'
'rykov_'
'ryk_'
'ryakhovsky_'
'rvg_'
'rutherford_'
'ruta_'
'rusÂ_'
'rustier_'
'rustic_'
'rusted_'
'rust_'
'russiaÂ_'
'russians_'
'rushby_'
'rushbrooke_'
'ruschioideae_'
'ruptures_'
'rupite_'
'runswick_'
'runoff_'
'runners_'
'runciman_'
'rumped_'
'rumour_'
'rumors_'
'rumbling_'
'rulings_'
'ruiz_'
'ruffling_'
'rueful_'
'rudy_'
'rude_'
'ruc_'
'rubens_'
'rubber_'
'rub_'
'rsc_'
'rs4_'
'rs200_'
'rpr_'
'rpm_'
'rpl_'
'rpc_'
'rp_'
'royton_'
'royce_'
'royals_'
'royalist_'
'roxburgh_'
'rowhouses_'
'rowers_'
'rovers_'
'rov_'
'routledge_'
'routines_'
'routh_'
'routed_'
'roussel_'
'rousing_'
'rougon_'
'rotunde_'
'rotterdam_'
'rotted_'
'rotors_'
'rotating_'
'rotates_'
'rotate_'
'rot_'
'rosÃ_'
'roster_'
'rosseau_'
'rosicrucians_'
'rosht_'
'rosewall_'
'roses_'
'rosales_'
'ropes_'
'rooting_'
'roosevelt_'
'roos_'
'ron_'
'romney_'
'romans_'
'romania_'
'romani_'
'rom_'
'rolpa_'
'rolness_'
'rolling_'
'rollers_'
'roller_'
'rolled_'
'roll_'
'rolf_'
'rolex_'
'rokugan_'
'rojo_'
'rohl_'
'rohi_'
'roget_'
'roger_'
'roedelius_'
'rode_'
'rocky_'
'rockists_'
'rockist_'
'rockingham_'
'rockets_'
'rockbar_'
'rochester_'
'roche_'
'rochdale_'
'robotic_'
'robinson_'
'robes_'
'robbins_'
'robber_'
'rob_'
'roark_'
'roar_'
'roadway_'
'roaching_'
'roach_'
'rnid_'
'rncm_'
'rnas_'
'rna_'
'rizegreymon_'
'riviera_'
'riverside_'
'riverina_'
'risking_'
'riskhospitalet_'
'rishi_'
'risen_'
'risc_'
'ripÃ_'
'ripstop_'
'ripper_'
'ripped_'
'riots_'
'rioting_'
'riot_'
'rinpoche_'
'ringwood_'
'ringtone_'
'ringo_'
'ringers_'
'rim_'
'rikshospitalet_'
'rihan_'
'rigours_'
'rigorously_'
'rigidly_'
'riggins_'
'rigg_'
'rig_'
'rifles_'
'rietz_'
'riera_'
'ridges_'
'rider_'
'riddell_'
'rico_'
'ricky_'
'rickson_'
'rickshaw_'
'richer_'
'richardson_'
'ricardo_'
'rica_'
'ribs_'
'ribe_'
'ribbon_'
'ribagorza_'
'riaa_'
'rhythmically_'
'rhythm_'
'rhyolites_'
'rhyming_'
'rhymed_'
'rhubarb_'
'rhs_'
'rhododendron_'
'rhine_'
'rhetoric_'
'rhabdomyolysis_'
'rfu_'
'rez_'
'rewarded_'
'reward_'
'revulsion_'
'revues_'
'revue_'
'revolves_'
'revolutionaries_'
'revolucionario_'
'revocation_'
'revived_'
'revitalized_'
'revisits_'
'reviewing_'
'reviewers_'
'reversing_'
'reversed_'
'reverential_'
'reverence_'
'revendrapadu_'
'revelation_'
'reveals_'
'revealing_'
'revamped_'
'reused_'
'reuse_'
'reunions_'
'reunion_'
'reuben_'
'retrospective_'
'retrieved_'
'retrieval_'
'retreats_'
'retreating_'
'retraining_'
'retired_'
'retire_'
'retiarius_'
'resurrection_'
'resurgences_'
'resurectional_'
'resumed_'
'restructurings_'
'restructuring_'
'restricting_'
'restrict_'
'restindex_'
'responsibles_'
'responders_'
'respiratory_'
'respiration_'
'respects_'
'respectful_'
'respectable_'
'resorted_'
'resonating_'
'resolving_'
'resists_'
'resistor_'
'resisted_'
'resist_'
'resilient_'
'resign_'
'residue_'
'residual_'
'resets_'
'reservoirs_'
'resented_'
'resellers_'
'resell_'
'res_'
'repute_'
'reputable_'
'republished_'
'republics_'
'republicans_'
'republicanism_'
'reptiles_'
'reptile_'
'reproductive_'
'reproductions_'
'reproducing_'
'reproduce_'
'reprocessed_'
'reprised_'
'reprisals_'
'representing_'
'repossed_'
'reportage_'
'reply_'
'replication_'
'replanted_'
'repenting_'
'repeats_'
'repeating_'
'repeatability_'
'repayments_'
'repay_'
'repairs_'
'repaired_'
'repainted_'
'repackaged_'
'rep_'
'reopened_'
'renÃ_'
'renumbered_'
'rented_'
'rensen_'
'renounce_'
'rene_'
'rendezvous_'
'renders_'
'render_'
'renan_'
'renamo_'
'renamed_'
'renal_'
'renaissance_'
'ren_'
'removes_'
'removable_'
'remoteness_'
'remortaging_'
'remodelling_'
'remodeled_'
'remnants_'
'remnant_'
'remixes_'
'remit_'
'remission_'
'reminiscences_'
'reminds_'
'reminding_'
'reminders_'
'rememuseum_'
'remembering_'
'remembered_'
'remedied_'
'remarked_'
'remanufactured_'
'rem_'
'reluctant_'
'relocations_'
'relly_'
'reliving_'
'relish_'
'religionist_'
'reliever_'
'relieved_'
'relies_'
'reliant_'
'reliance_'
'relegation_'
'relaying_'
'relaxants_'
'relax_'
'relational_'
'relates_'
'relapses_'
'relapse_'
'relabeled_'
'rejection_'
'rejecting_'
'reject_'
'reizenstein_'
'reissues_'
'reinvention_'
'reintroduced_'
'reinterpret_'
'reinstated_'
'reinhardt_'
'reinforcing_'
'reinforced_'
'reinforce_'
'reilly_'
'reiki_'
'rehearsals_'
'rehearsal_'
'regulatory_'
'regulator_'
'regulation_'
'regulated_'
'regrouped_'
'regretting_'
'registry_'
'regisration_'
'regimes_'
'regimens_'
'reggie_'
'regent_'
'regency_'
'regards_'
'regain_'
'refuted_'
'refute_'
'refurbishment_'
'refurbishing_'
'refurbish_'
'refuges_'
'refrigerator_'
'refrigeration_'
'refrigerated_'
'refresher_'
'refrain_'
'refractory_'
'refractories_'
'reformation_'
'reflects_'
'reflections_'
'refit_'
'refined_'
'refine_'
'referring_'
'referral_'
'refereed_'
'ref_'
'reeve_'
'reeth_'
'reels_'
'redundancy_'
'redthroats_'
'redoubled_'
'redmond_'
'redirect_'
'redgrave_'
'redemptioners_'
'redecorating_'
'redditch_'
'redbook_'
'recycling_'
'recurrent_'
'recurred_'
'recur_'
'rectums_'
'rector_'
'rectangular_'
'recruits_'
'recreating_'
'recreate_'
'recorders_'
'reconvicted_'
'reconstructions_'
'reconnaissance_'
'reconfigurable_'
'reconditioned_'
'recommends_'
'recollect_'
'recoilless_'
'recoil_'
'recognisable_'
'recluse_'
'reclaimed_'
'reckless_'
'reciting_'
'recipient_'
'recessed_'
'receptor_'
'receiver_'
'rebooted_'
'reboot_'
'rebellious_'
'rebecca_'
'rebbe_'
'reassuring_'
'reassigned_'
'reasonsÂ_'
'rearmament_'
'rearing_'
'reapir_'
'reang_'
'realtors_'
'realms_'
'realized_'
'realize_'
'realization_'
'realistic_'
'reads_'
'readership_'
'reactors_'
'reactionary_'
'react_'
'reaches_'
'rcs_'
'rcn_'
'rcgp_'
'rbk_'
'razÃ³_'
'razos_'
'razed_'
'razaleigh_'
'ravines_'
'ravine_'
'rautavaara_'
'raub_'
'rattan_'
'ratios_'
'ratified_'
'rathores_'
'ratcliffe_'
'rasiya_'
'rasi_'
'rashness_'
'rarer_'
'rapids_'
'rapidly_'
'raphael_'
'raped_'
'rapacious_'
'raos_'
'ransomville_'
'ransomed_'
'ransacked_'
'ranomafana_'
'rankl_'
'rankest_'
'ranged_'
'rang_'
'randomized_'
'randomised_'
'randlett_'
'ranching_'
'ramps_'
'rampant_'
'ramp_'
'ramones_'
'ramona_'
'ramon_'
'ramel_'
'ramdasia_'
'rambling_'
'rambles_'
'ramaswamy_'
'ramadi_'
'ramada_'
'rama_'
'ralph_'
'rally_'
'rallies_'
'raleigh_'
'raki_'
'rajur_'
'rajput_'
'rajiv_'
'rajib_'
'raj_'
'raisins_'
'raineth_'
'rainbows_'
'rainbow_'
'railtrack_'
'raiganj_'
'rahman_'
'rags_'
'rage_'
'rag_'
'rafting_'
'rafter_'
'rae_'
'radon_'
'radlett_'
'radiocarbon_'
'radioactivity_'
'radially_'
'radial_'
'radford_'
'radars_'
'racy_'
'racquel_'
'racket_'
'racially_'
'rachel_'
'racetrack_'
'rac_'
'rabbit_'
'raag_'
'raaf_'
'quÃ_'
'quotation_'
'quota_'
'quot_'
'qumran_'
'quizzes_'
'quit_'
'quirks_'
'quinces_'
'quilceda_'
'quicksand_'
'quests_'
'questioning_'
'questionaire_'
'queries_'
'quentin_'
'quelled_'
'quell_'
'quela_'
'quebec_'
'quatrains_'
'quartile_'
'quartets_'
'quarterback_'
'quarshie_'
'quarrying_'
'quarry_'
'quarrel_'
'quantification_'
'quando_'
'qualifiers_'
'qualifiction_'
'qualification_'
'quakers_'
'quaker_'
'quadruple_'
'quadratus_'
'quadrant_'
'quadrangle_'
'qtvr_'
'qtvi_'
'qts_'
'qsos_'
'qscan_'
'qe2_'
'qala_'
'pythodorus_'
'pyrrho_'
'pyrotechnology_'
'pyro_'
'pyramid_'
'pyongyang_'
'pyaari_'
'pwds_'
'pvpa_'
'puzzled_'
'putatively_'
'pushtoons_'
'pushes_'
'push_'
'pus_'
'pursuits_'
'purposely_'
'purporting_'
'puritans_'
'puritanism_'
'purina_'
'purho_'
'purchases_'
'purchasers_'
'purchaser_'
'purbanchal_'
'puptoporus_'
'puppies_'
'pupilbehaviour_'
'puns_'
'punk_'
'punjabis_'
'punishing_'
'punctuation_'
'punched_'
'pumping_'
'pumped_'
'pump_'
'pulsars_'
'pulp_'
'pulls_'
'pulling_'
'puffed_'
'puff_'
'puerile_'
'pudding_'
'publishers_'
'publisher_'
'pu_'
'ptolemy_'
'psychopathology_'
'psychopath_'
'psychologically_'
'psychoanlaysis_'
'psychoanalysts_'
'psychics_'
'psychiatry_'
'psychedelic_'
'psni_'
'psilocybin_'
'pseudoscience_'
'pseudonyms_'
'pseudo_'
'pseudepigraphic_'
'psbr_'
'psalms_'
'psalm_'
'pruning_'
'prune_'
'pruett_'
'prudent_'
'proxis_'
'proximity_'
'provocative_'
'proving_'
'providence_'
'provenance_'
'proudly_'
'prototyping_'
'prototypes_'
'prototype_'
'protestors_'
'protesters_'
'proterozoic_'
'protagonists_'
'protagonist_'
'prostituting_'
'prosthesis_'
'prosperous_'
'prospects_'
'prosecutors_'
'prosecution_'
'prosecuted_'
'proscenium_'
'pros_'
'propulsion_'
'props_'
'propositions_'
'proposing_'
'propose_'
'proportional_'
'prophet_'
'propety_'
'propellant_'
'propaganda_'
'proofs_'
'proofreading_'
'pronunciations_'
'prompt_'
'promply_'
'promoters_'
'promod_'
'promising_'
'prom_'
'prolonged_'
'proletariat_'
'projection_'
'projecting_'
'projectiles_'
'prohori_'
'prohibitively_'
'prohibited_'
'progressed_'
'programmers_'
'progeny_'
'profitable_'
'professions_'
'professionalising_'
'professed_'
'productsÃ_'
'productivity_'
'prodigal_'
'procuring_'
'procreative_'
'proclaimed_'
'processor_'
'proceeds_'
'probes_'
'probationers_'
'proactive_'
'prized_'
'privy_'
'privileges_'
'privilege_'
'privatised_'
'privatisation_'
'privates_'
'pristina_'
'prisoner_'
'priory_'
'priors_'
'pring_'
'principals_'
'princess_'
'princes_'
'primrose_'
'primitives_'
'primate_'
'prilep_'
'priest_'
'pride_'
'pricks_'
'pricey_'
'priced_'
'preveza_'
'preventing_'
'prevented_'
'pretense_'
'pretended_'
'pretence_'
'pressures_'
'presses_'
'pressed_'
'presley_'
'preserves_'
'preservatives_'
'presents_'
'presenters_'
'prescribing_'
'preschool_'
'presbyterian_'
'prerecorded_'
'preprocessing_'
'preposterously_'
'prepares_'
'preparers_'
'preparations_'
'prep_'
'preordination_'
'prentice_'
'premonitions_'
'premise_'
'premiership_'
'premiere_'
'preliminary_'
'prek_'
'pregnant_'
'prefunction_'
'prefigure_'
'preferences_'
'preferable_'
'prefectures_'
'prefatory_'
'prefaces_'
'prefabs_'
'predrag_'
'predominately_'
'predictions_'
'predatory_'
'predators_'
'predated_'
'predate_'
'precursors_'
'precluding_'
'precision_'
'precipitately_'
'precincts_'
'precedes_'
'preceded_'
'precautions_'
'precambrian_'
'preamble_'
'pray_'
'pratchett_'
'prasats_'
'pram_'
'prairie_'
'practises_'
'practise_'
'practicing_'
'practicals_'
'practicality_'
'practicable_'
'prabhakar_'
'pps_'
'pps12_'
'ppa_'
'pp_'
'powerbrokers_'
'powder_'
'pow_'
'pouring_'
'pour_'
'pounded_'
'poulenc_'
'pouilly_'
'potted_'
'pots_'
'potentially_'
'potency_'
'potatoes_'
'posture_'
'posttranslational_'
'postponed_'
'postnuke_'
'posting_'
'postfix_'
'posters_'
'poster_'
'postdate_'
'postcrania_'
'postcode_'
'postcard_'
'postan_'
'postage_'
'posse_'
'positron_'
'positives_'
'positioned_'
'pose_'
'portugese_'
'portugal_'
'portrayed_'
'portonovo_'
'portomaso_'
'porto_'
'portland_'
'porters_'
'portering_'
'porterhouse_'
'porter_'
'portait_'
'portables_'
'portability_'
'porshnev_'
'pornography_'
'pornographic_'
'porch_'
'porcellanids_'
'porcellana_'
'porcelain_'
'populous_'
'popularized_'
'popularity_'
'poptimists_'
'popists_'
'popham_'
'popes_'
'pope_'
'pooling_'
'poole_'
'pontoon_'
'pontil_'
'ponda_'
'pond_'
'pompous_'
'pomerania_'
'pomaderris_'
'polyurethane_'
'polyphony_'
'polynomial_'
'polynesians_'
'polylepis_'
'polyeleos_'
'polychoral_'
'polychlorinated_'
'polski_'
'polluting_'
'polls_'
'pollock_'
'pollination_'
'polka_'
'politicking_'
'politicisation_'
'politicans_'
'politely_'
'policing_'
'poles_'
'polemics_'
'polarization_'
'poking_'
'poisonous_'
'poisoning_'
'poise_'
'pointless_'
'pointing_'
'poetics_'
'poetically_'
'poetic_'
'podcasts_'
'podcast_'
'pockets_'
'poaching_'
'po_'
'pneumothorax_'
'ply_'
'pluz_'
'plundered_'
'plumbing_'
'plumage_'
'plugged_'
'pluck_'
'plow_'
'ploughteam_'
'plotting_'
'plotter_'
'plots_'
'plotline_'
'plodded_'
'pliskov_'
'pliocene_'
'plinth_'
'plight_'
'plied_'
'plethon_'
'plentiful_'
'pleistocene_'
'pleasures_'
'pleasonton_'
'pleased_'
'pleasantly_'
'pleas_'
'plazas_'
'playlist_'
'playful_'
'playdale_'
'playa_'
'plausibly_'
'plausible_'
'plausibility_'
'plats_'
'platforms_'
'plastics_'
'plasterwork_'
'plastered_'
'plaque_'
'plantings_'
'plantes_'
'planters_'
'plantation_'
'plankton_'
'planks_'
'planetry_'
'plane_'
'plaintive_'
'plaintext_'
'plainslike_'
'plagues_'
'plagued_'
'plague_'
'plagiarist_'
'plader_'
'placing_'
'placer_'
'placements_'
'placards_'
'pla_'
'pkp_'
'piya_'
'pixie_'
'pixels_'
'pivots_'
'piu_'
'pity_'
'pitting_'
'pithouses_'
'pithes_'
'pithas_'
'pitching_'
'pistols_'
'piste_'
'piron_'
'pirate_'
'piranha_'
'pirana_'
'pippidi_'
'pippa_'
'pipleline_'
'piperÃ_'
'pipeline_'
'pipe_'
'pip_'
'pioneering_'
'pioneered_'
'pints_'
'pinter_'
'pint_'
'pinsent_'
'pinpoint_'
'pinout_'
'pinochet_'
'pinnacle_'
'ping_'
'pineapple_'
'pinching_'
'pinch_'
'pin_'
'piloting_'
'pillow_'
'pillman_'
'pilgrims_'
'pilgrimers_'
'pilgrimage_'
'piled_'
'pile_'
'pilani_'
'pikiona_'
'pike_'
'pigments_'
'piggybank_'
'pierced_'
'pierce_'
'pieni_'
'pied_'
'pie_'
'pictorial_'
'picnics_'
'pickups_'
'picking_'
'picketing_'
'picketed_'
'pickering_'
'piccadilly_'
'picasa_'
'physiologist_'
'physicists_'
'phylogenetic_'
'phyla_'
'phraya_'
'phrases_'
'phrased_'
'phrase_'
'php3_'
'photosynthesisng_'
'photoshoot_'
'photographically_'
'phosphate_'
'phonological_'
'phoning_'
'phonic_'
'phonetics_'
'phoenix_'
'phobias_'
'philosophise_'
'philosophies_'
'philly_'
'philips_'
'philippoussis_'
'philippine_'
'phet_'
'phenytoin_'
'phenotypes_'
'phenomenon_'
'phelps_'
'phat_'
'phasing_'
'pharmacy_'
'pharmacologically_'
'pharma_'
'phantom_'
'phage_'
'pfa_'
'petrushkaÃ_'
'petrov_'
'petropavlovsk_'
'petrolisthes_'
'petroleum_'
'petroglyphs_'
'petri_'
'petrels_'
'petre_'
'petrarch_'
'petitions_'
'petition_'
'petit_'
'pethick_'
'peterhead_'
'peterborough_'
'petar_'
'petals_'
'peshitta_'
'peshawar_'
'pescatore_'
'pertinent_'
'perth_'
'pertemps_'
'pertaining_'
'persuaded_'
'persson_'
'personages_'
'persistence_'
'persisted_'
'persist_'
'perseids_'
'persecuted_'
'perpetuity_'
'perpetua_'
'perpetrators_'
'perninae_'
'permitting_'
'permanently_'
'perks_'
'perishable_'
'perish_'
'periphery_'
'peripheral_'
'periodically_'
'perinet_'
'perimeter_'
'pergolesi_'
'performs_'
'perfom_'
'perfecting_'
'perdido_'
'percy_'
'perceptions_'
'perakalapudi_'
'pepÃ_'
'peptostreptococcus_'
'peppers_'
'pepper_'
'peoria_'
'penya_'
'penumuli_'
'penteli_'
'pentecost_'
'pensacola_'
'pennyÂ_'
'pennines_'
'pennine_'
'pennies_'
'penned_'
'penis_'
'peninsula_'
'penicillin_'
'penguins_'
'pengilly_'
'penfolds_'
'penetrate_'
'pendulum_'
'pendant_'
'pencil_'
'penchant_'
'penalised_'
'pembrokeshire_'
'pembroke_'
'peking_'
'pegasus_'
'peel_'
'pee_'
'pedestrians_'
'pedestals_'
'peddling_'
'pedapalem_'
'pedagogies_'
'ped_'
'pecten_'
'peconic_'
'peckforton_'
'pebble_'
'peasants_'
'peasant_'
'pearl_'
'pear_'
'peanuts_'
'peale_'
'peacemuseums_'
'peacemaker_'
'peacekeepers_'
'peacekeeper_'
'pdes_'
'pcts_'
'pct_'
'pcr_'
'pcmcia_'
'pci_'
'pcbs_'
'pbs_'
'payslips_'
'pays_'
'payrolls_'
'payne_'
'paye_'
'payday_'
'paycheck_'
'payable_'
'pavement_'
'pauls_'
'pauline_'
'paula_'
'patterson_'
'pattering_'
'patsy_'
'patrons_'
'patronisingly_'
'patronised_'
'patronise_'
'patron_'
'patrols_'
'patrolman_'
'patrol_'
'patriots_'
'patriotic_'
'patriot_'
'patrick_'
'patricia_'
'patriarchate_'
'pathways_'
'pathway_'
'pathological_'
'pathfinders_'
'pathetic_'
'patchy_'
'pastures_'
'pasttrack_'
'pastors_'
'passport_'
'passions_'
'passionately_'
'paspalis_'
'paskowitz_'
'pascha_'
'partÂ_'
'partridge_'
'partnering_'
'partisan_'
'particle_'
'parthood_'
'partements_'
'parsing_'
'parshvanath_'
'parsecs_'
'parr_'
'parodied_'
'parnitha_'
'parment_'
'parmanently_'
'parlor_'
'parkland_'
'parkinson_'
'parking_'
'parkers_'
'parisian_'
'parishioners_'
'pardew_'
'parcels_'
'paratime_'
'parasitic_'
'paraphysis_'
'paralle_'
'paraldehyde_'
'paragons_'
'paraffin_'
'paradoxical_'
'paradise_'
'parades_'
'parabolic_'
'parables_'
'parable_'
'papyrus_'
'papyri_'
'papol_'
'papiers_'
'papersreviewspricesdownloadsall_'
'paperless_'
'paperback_'
'papacy_'
'papa_'
'pao_'
'panzer_'
'panossian_'
'panorama_'
'panned_'
'panjkora_'
'panes_'
'panellists_'
'panelling_'
'panelists_'
'paneling_'
'panda_'
'pancakes_'
'panay_'
'panaon_'
'panamanian_'
'pan_'
'pamphlets_'
'pam_'
'palonen_'
'palms_'
'palma_'
'palestinians_'
'paleozoic_'
'paleogene_'
'pale_'
'palates_'
'palais_'
'palaeozoic_'
'palaeontology_'
'palaeolithic_'
'paladini_'
'paladilhe_'
'pakistanis_'
'pakages_'
'paisley_'
'paired_'
'paints_'
'paintballing_'
'pains_'
'pahlavi_'
'pageÃ_'
'pageant_'
'pag_'
'pae_'
'pads_'
'padre_'
'padi_'
'paddlers_'
'padding_'
'padded_'
'pad_'
'pacy_'
'packs_'
'packets_'
'packet_'
'packages_'
'packaged_'
'pacing_'
'pacijan_'
'pacifist_'
'pace_'
'p97_'
'ozone_'
'oz_'
'oyster_'
'oxyrinchus_'
'oxyacetate_'
'oxlip_'
'oxley_'
'oxidizer_'
'oxides_'
'oxide_'
'oxidation_'
'oxidases_'
'oxbridge_'
'owens_'
'owen_'
'ovipositor_'
'overturn_'
'overtures_'
'overtly_'
'overtake_'
'overstreet_'
'overstamped_'
'oversized_'
'oversights_'
'overshadow_'
'overseen_'
'oversee_'
'oversaw_'
'overrun_'
'overriding_'
'overlooking_'
'overlooked_'
'overlapping_'
'overhear_'
'overhead_'
'overhauled_'
'overfishing_'
'overdose_'
'overcrowded_'
'overclock_'
'overcapacity_'
'overboard_'
'ovalis_'
'ov_'
'outwith_'
'outwards_'
'outstretched_'
'outsourcing_'
'outskirts_'
'outlined_'
'outline_'
'outlaws_'
'outings_'
'outing_'
'outgoing_'
'outdoors_'
'outburst_'
'ouse_'
'ourseleves_'
'ours_'
'ounces_'
'otto_'
'otoliths_'
'otmr_'
'otis_'
'oswaldÃ_'
'oswald_'
'osu_'
'ostrich_'
'ostrea_'
'ostraca_'
'ostensibly_'
'ostap_'
'ossetia_'
'oss_'
'ospreys_'
'oso_'
'oscillators_'
'oscar_'
'osburn_'
'osa_'
'orthostatic_'
'orthoptic_'
'orthologues_'
'orthodoxy_'
'orphaned_'
'orphan_'
'orogeny_'
'ornithopoda_'
'ornithologist_'
'ornaments_'
'orleans_'
'orkney_'
'orinoco_'
'orientated_'
'oriental_'
'orient_'
'orgasms_'
'organon_'
'organizers_'
'organized_'
'organized150_'
'organize_'
'organizational_'
'organiser_'
'organise_'
'organics_'
'organically_'
'organa_'
'ores_'
'oregon_'
'ordyan_'
'ordovician_'
'ordination_'
'ordering_'
'ordeals_'
'ordained_'
'orchid_'
'orchestrations_'
'orchestras_'
'orchestral_'
'orcadians_'
'orbit_'
'orator_'
'opulence_'
'optimistic_'
'optimise_'
'optimisation_'
'optimally_'
'optic_'
'oppus_'
'oppune_'
'oppressed_'
'opposing_'
'opportunists_'
'opioids_'
'operetta_'
'operator_'
'operatives_'
'operative_'
'operandi_'
'op_'
'op3_'
'ooks_'
'ooh_'
'oogonia_'
'oogie_'
'oocytes_'
'ontology_'
'onshore_'
'onset_'
'ons_'
'onosma_'
'onkym_'
'oneÂ_'
'onesÃ_'
'ondine_'
'oncoming_'
'on14mm_'
'omitting_'
'omaxe_'
'omar_'
'omaha_'
'olympics_'
'olsson_'
'olrik_'
'olom_'
'olmert_'
'olly_'
'oldoppos_'
'oklahoma_'
'okie_'
'okay_'
'okavango_'
'ok_'
'oilers_'
'oi_'
'oha_'
'ographie_'
'oglebay_'
'ogilvy_'
'oftel_'
'offshored_'
'offsetting_'
'officio_'
'offense_'
'offend_'
'offenceÂ_'
'offbeat_'
'oet_'
'odour_'
'odor_'
'odes_'
'odds_'
'oddly_'
'ocular_'
'octu_'
'octoechos_'
'octave_'
'ockenden_'
'ocfa_'
'ocelot_'
'occurrence_'
'occupying_'
'occupiers_'
'occupational_'
'occupants_'
'occupancy_'
'occultism_'
'occult_'
'occluded_'
'occidental_'
'obuya_'
'obstructed_'
'obstetrical_'
'obsessions_'
'obsessional_'
'observers_'
'observe_'
'observatoryÃ_'
'observatory_'
'observatories_'
'observational_'
'obscurity_'
'obscure_'
'obscene_'
'obs_'
'oblivious_'
'obliterates_'
'obliged_'
'obligations_'
'obligated_'
'oblast_'
'oblasnyi_'
'objectors_'
'obituaries_'
'obeying_'
'oaths_'
'oaks_'
'oakley_'
'nysdot_'
'nysa_'
'nyman_'
'nyiragahaya_'
'nyi_'
'nya_'
'ny_'
'nuts_'
'nutritional_'
'nuthatches_'
'nusrat_'
'nurturing_'
'nurse_'
'nunavik_'
'numero_'
'numeraries_'
'nuisance_'
'nuig_'
'nuh_'
'nuge_'
'nucleotides_'
'nucleic_'
'nt_'
'nsw_'
'nsts_'
'nscs_'
'nsc_'
'nra_'
'nptc_'
'npt_'
'npl_'
'npil_'
'npfa_'
'nox_'
'nowhere_'
'novelty_'
'novelizations_'
'novalyne_'
'nourished_'
'nou_'
'notoriety_'
'notions_'
'noting_'
'notification_'
'noticing_'
'notices_'
'noticeable_'
'notetakers_'
'notebooks_'
'notebook_'
'notch_'
'notables_'
'nota_'
'nostro_'
'nostalgic_'
'nostalgia_'
'norvis_'
'norton_'
'northumberland_'
'northrop_'
'northeasterners_'
'northeastern_'
'norse_'
'norris_'
'nornalup_'
'norms_'
'normanton_'
'normans_'
'noriega_'
'nordsyn_'
'nootka_'
'noon_'
'nook_'
'nonsensical_'
'nonroute_'
'nonprofits_'
'nonpalpable_'
'nono_'
'nonlinear_'
'nonexistant_'
'nonconformist_'
'nonbreeding_'
'nominations_'
'nominated_'
'nominate_'
'nomadic_'
'noisy_'
'noiseÃ_'
'noggle_'
'noggin_'
'noel_'
'noebel_'
'nodules_'
'nodosaurids_'
'node_'
'nodding_'
'nobuo_'
'nobue_'
'nobel_'
'nobble_'
'noaaÃ_'
'no1_'
'nmd_'
'nmasamg_'
'nlp_'
'nixon_'
'nivkhs_'
'nitrate_'
'nite_'
'nissan_'
'nisga_'
'ninety_'
'nineteen_'
'nimal_'
'nima_'
'nileÃ_'
'nile_'
'nikola_'
'nike_'
'nighttime_'
'nightspots_'
'nightmarish_'
'nightmares_'
'nighthawks_'
'nighter_'
'nigella_'
'nigel_'
'nieuwenhuys_'
'nidever_'
'nicotine_'
'nicolson_'
'nicola_'
'nicky_'
'nickname_'
'nicked_'
'nick_'
'nicholson_'
'nicest_'
'nicer_'
'nibbons_'
'nibbler_'
'niall_'
'nhsla_'
'ngos_'
'ngoc_'
'ngi_'
'nganga_'
'nfu_'
'nfb_'
'ney_'
'newsworthy_'
'newsum_'
'newsome_'
'newsletters_'
'newquay_'
'newnansville_'
'newfoundland_'
'newett_'
'newcombe_'
'newbourne_'
'newborn_'
'newbigging_'
'neutral_'
'neurotrophic_'
'neurons_'
'neurological_'
'neural_'
'neue_'
'networkrail_'
'networking_'
'networked_'
'nettle_'
'netters_'
'netball_'
'nestÂ_'
'nestorians_'
'nestorian_'
'nesmah_'
'nes_'
'nephews_'
'nephew_'
'nepalese_'
'neonatal_'
'neogene_'
'neoclassical_'
'nennifer_'
'nemophila_'
'nema_'
'nelore_'
'neill_'
'neighbourhoods_'
'nehru_'
'negotiation_'
'negotiating_'
'negotiated_'
'negotiate_'
'neglected_'
'neglect_'
'needlessly_'
'neediness_'
'neck_'
'necessitating_'
'nebulous_'
'neatly_'
'neat_'
'nearer_'
'ne_'
'ndad_'
'ncp_'
'nclc_'
'ncaa_'
'nbsp_'
'nbr_'
'nbn_'
'nb_'
'nazoraeans_'
'nazareth_'
'nayaki_'
'nayagasharara_'
'naweit_'
'navratri_'
'navigated_'
'navi_'
'nave_'
'navalar_'
'nauka_'
'naught_'
'natured_'
'naturaliste_'
'nationalists_'
'nationalist_'
'natchez_'
'nasser_'
'nasrani_'
'nasa_'
'narrowboats_'
'narek_'
'narducci_'
'narcotics_'
'napoleon_'
'naped_'
'nanny_'
'nancy_'
'nanakÃ_'
'nan_'
'namuth_'
'namibia_'
'nal_'
'naked_'
'nakasendm_'
'nakadai_'
'najrn_'
'nait_'
'nailed_'
'nail_'
'nagaon_'
'nadu_'
'nadi_'
'nacional_'
'nachman_'
'nac_'
'nabokov_'
'nablus_'
'nabih_'
'nabatean_'
'mythical_'
'myth_'
'mystification_'
'mysterious_'
'myspace_'
'mysore_'
'myrmecia_'
'myriad_'
'myelitis_'
'mycicites_'
'myanmar_'
'mwm_'
'mw_'
'muzzles_'
'muzungu_'
'muybridge_'
'mutine_'
'muted_'
'mutated_'
'mustoÃ_'
'mustard_'
'mustangs_'
'muskeg_'
'musings_'
'musician_'
'musically_'
'mushroom_'
'mushfig_'
'museveni_'
'muses_'
'muscovites_'
'muscat_'
'murres_'
'murphyÃ_'
'murphy_'
'murine_'
'murambatsvina_'
'muraenas_'
'munthe_'
'munro_'
'munir_'
'municipium_'
'munich_'
'mungiu_'
'munchies_'
'mums_'
'mulund_'
'multipurpose_'
'multinational_'
'multimedia_'
'multifaceted_'
'multicultural_'
'mullein_'
'mullaghcarn_'
'mull_'
'mulholland_'
'mukunnu_'
'mukkunu_'
'muirhead_'
'muinicipal_'
'mugendai_'
'mudslides_'
'mubhalah_'
'msrp_'
'msi_'
'mrls_'
'mrcgp_'
'mpa_'
'mp_'
'mozart_'
'moxibustion_'
'movingimproving_'
'movimiento_'
'moveable_'
'mouton_'
'mouths_'
'mouthing_'
'mouthfuls_'
'mouthed_'
'mouth_'
'mountainous_'
'mountaineer_'
'moulding_'
'moulders_'
'mould_'
'moulay_'
'motts_'
'mottmorency_'
'mott_'
'motronic_'
'motown_'
'motorways_'
'motorway_'
'motortown_'
'motorola_'
'motorinsurance_'
'motorbike_'
'motogp_'
'motifs_'
'mothership_'
'mothered_'
'motets_'
'mot_'
'mostar_'
'mostajo_'
'mosses_'
'moskitia_'
'moselle_'
'moseley_'
'morton_'
'mortgages_'
'mortally_'
'mortal_'
'morris_'
'morphine_'
'mormon_'
'moritz_'
'morita_'
'morietur_'
'moreton_'
'morampudi_'
'morals_'
'moors_'
'moorish_'
'moorhen_'
'moons_'
'moonlight_'
'moonee_'
'moods_'
'montrÃ_'
'montrose_'
'montmartre_'
'montgomery_'
'montauban_'
'montana_'
'montalva_'
'monster_'
'monsoon_'
'monoxide_'
'monotypic_'
'monotone_'
'monoprint_'
'monopolisation_'
'monophonic_'
'monomers_'
'monologue_'
'monograph_'
'monoglot_'
'monodic_'
'monoceros_'
'mono_'
'monnot_'
'monkey_'
'monitoring_'
'monitored_'
'mongolian_'
'moneyfacts_'
'mondo_'
'monarchs_'
'momand_'
'molokai_'
'mollis_'
'mollie_'
'moll_'
'molko_'
'moles_'
'molecular_'
'moldings_'
'mol_'
'moissac_'
'moilanji_'
'mohogany_'
'moharan_'
'mohammedÃ_'
'mohammed_'
'mogul_'
'modulation_'
'modular_'
'modestly_'
'modernize_'
'modernise_'
'modernisation_'
'moderating_'
'moderately_'
'moderate_'
'modem_'
'modelÂ_'
'modelled_'
'modeled_'
'mod_'
'mocked_'
'moby_'
'mobs_'
'mobilized_'
'moberg_'
'mob_'
'moaning_'
'moaners_'
'mnscu_'
'mmr_'
'mmcfpd_'
'mm_'
'mlÃ_'
'mla_'
'mkybrid_'
'mkomaziÃ_'
'mkisofs_'
'mk_'
'mizumori_'
'miyake_'
'mixing_'
'mitt_'
'mitsumasa_'
'mitra_'
'mitigated_'
'mitigate_'
'mitie_'
'mithali_'
'mites_'
'mite_'
'misused_'
'misunderstandings_'
'mistletoe_'
'missiles_'
'mismanagement_'
'misinterpret_'
'misguided_'
'misgivings_'
'misfortunes_'
'misfortune_'
'misery_'
'miserable_'
'misdemeanor_'
'misconception_'
'miscellaneous_'
'miscalled_'
'miscalculated_'
'misattribution_'
'misadventure_'
'mirrors_'
'mirroring_'
'mirror_'
'mirant_'
'miraculous_'
'miracle_'
'miquel_'
'miocene_'
'mio_'
'minted_'
'minoan_'
'ministries_'
'ministerial_'
'minions_'
'minimise_'
'minimisation_'
'minima_'
'minhiriath_'
'minh_'
'minerva_'
'mineral_'
'minefields_'
'mindless_'
'mindfully_'
'minarchists_'
'min_'
'mimic_'
'mimbres_'
'milwaukee_'
'milpitas_'
'millon_'
'millionaire_'
'millimeters_'
'milliere_'
'millers_'
'miller_'
'millenium_'
'militias_'
'militant_'
'milieu_'
'milford_'
'mileti_'
'milestones_'
'milenko_'
'mileage_'
'mildred_'
'mildly_'
'mildenhall_'
'milby_'
'milan_'
'mikvehs_'
'mikva_'
'mikardo_'
'mijinyawa_'
'mihangel_'
'migreted_'
'migrations_'
'migrating_'
'migrate_'
'migrasted_'
'mifune_'
'midwives_'
'midsummer_'
'midlothian_'
'midgut_'
'middlesbrough_'
'middlebury_'
'microwaves_'
'microsomal_'
'microdot_'
'microchips_'
'microcat_'
'microbiologically_'
'mickey_'
'michelangelo_'
'michel_'
'michaela_'
'mica_'
'miaskovsky_'
'mi_'
'mhvi_'
'mhf_'
'mgm2002_'
'mg_'
'mezzanine_'
'meyerland_'
'mex_'
'metzker_'
'metz_'
'metropolitans_'
'metroid_'
'methylation_'
'methuselah_'
'methuen_'
'methodology_'
'methodologies_'
'methodian_'
'methane_'
'methadone_'
'metering_'
'meteors_'
'meteorological_'
'meteorite_'
'mete_'
'metastatic_'
'metaphysical_'
'metamorphosis_'
'metamorphosed_'
'metallic_'
'metadata_'
'metabolites_'
'metabolist_'
'mestizos_'
'messier_'
'messiba_'
'mesothelioma_'
'mesolithic_'
'mesokurtic_'
'mesial_'
'meshed_'
'mesems_'
'mesembs_'
'mesembryanthemoideae_'
'merwe_'
'meru_'
'mertens_'
'merritt_'
'merrill_'
'merrie_'
'mero_'
'merlo_'
'merlin_'
'merkez_'
'merge_'
'merganser_'
'mereology_'
'mercury_'
'merchantmen_'
'merchantability_'
'merchandize_'
'merchandising_'
'mercantilism_'
'mercantile_'
'meps_'
'menzies_'
'menus_'
'mentors_'
'mentor_'
'mentions_'
'mentalities_'
'ment_'
'mennonite_'
'meng_'
'menezes_'
'mendis_'
'mende_'
'menander_'
'menachem_'
'menaced_'
'memphis_'
'memorials_'
'memoir_'
'mementos_'
'memento_'
'membrane_'
'membered_'
'meltzer_'
'melts_'
'melton_'
'melt_'
'melody_'
'mellowed_'
'melkonian_'
'melford_'
'melanie_'
'melancholy_'
'melancholic_'
'meiteis_'
'meitei_'
'meiners_'
'meiji_'
'mehler_'
'meghan_'
'megawatt_'
'megarhyssa_'
'megalomaniacs_'
'megabus_'
'megabops_'
'megabop_'
'meg_'
'medoc_'
'mednoye_'
'mediums_'
'medina_'
'medicalize_'
'medicalise_'
'medicaid_'
'mediators_'
'mediate_'
'medias_'
'median_'
'mediaeval_'
'medallist_'
'medallions_'
'medalist_'
'medal_'
'meco_'
'mechanism_'
'mechane_'
'mecha_'
'measuring_'
'measured_'
'measurable_'
'mears_'
'meany_'
'me7_'
'md_'
'mcspadden_'
'mcs_'
'mcqueen_'
'mcparland_'
'mcmullen_'
'mcmanus_'
'mclellan_'
'mckeever_'
'mcgill_'
'mcg_'
'mcewen_'
'mcdonnell_'
'mcdonalds_'
'mccormick_'
'mcclain_'
'mccartney_'
'mccarthyism_'
'mccain_'
'mcafee_'
'mbti_'
'mbm_'
'mbakaou_'
'mazhar_'
'mazhabi_'
'mazeppa_'
'mazda_'
'mayweed_'
'mayur_'
'mayors_'
'mayfly_'
'mayer_'
'mayday_'
'maximus_'
'maximize_'
'maximise_'
'maximal_'
'mavericks_'
'maverick_'
'maver_'
'mauritania_'
'maurice_'
'maues_'
'maudlin_'
'matured_'
'matura_'
'matterhorn_'
'mattered_'
'matsubara_'
'matrox_'
'matrons_'
'matrix_'
'matrimonial_'
'mathur_'
'mathematician_'
'maternity_'
'mater_'
'mateo_'
'masterpiece_'
'massvacation_'
'massimiliano_'
'masseuse_'
'massage_'
'massa_'
'masons_'
'masculine_'
'masbateÃ_'
'masbate_'
'mas_'
'maryÂ_'
'marys_'
'marvellous_'
'marvel_'
'martyrologist_'
'marts_'
'martinique_'
'martinez_'
'martinengo_'
'martian_'
'martial_'
'marti_'
'martha_'
'marten_'
'mart_'
'marshals_'
'marshalling_'
'marseillaise_'
'marrying_'
'marrion_'
'marquez_'
'marque_'
'marooned_'
'maroon_'
'marmont_'
'marmalade_'
'markus_'
'marksmanship_'
'markham_'
'marketplace_'
'marketed_'
'markat_'
'maris_'
'mario_'
'mariner_'
'marinas_'
'maria_'
'margin_'
'margaret_'
'marched_'
'maranao_'
'maramure_'
'mapped_'
'maple_'
'mao_'
'manÃ_'
'manuscript_'
'manuals_'
'mansion_'
'manpower_'
'manouvering_'
'manors_'
'manning_'
'manned_'
'mann_'
'manjeshwar_'
'manjari_'
'manitoba_'
'manipulation_'
'manipulate_'
'manifesto_'
'manifested_'
'manifest_'
'maniac_'
'manger_'
'manganese_'
'mangalore_'
'manga_'
'manfred_'
'maneuvers_'
'manets_'
'mandatory_'
'mandarins_'
'mandal_'
'mammography_'
'mammalian_'
'mammal_'
'mamao_'
'malÃ_'
'malware_'
'malta_'
'malpractice_'
'malons_'
'malnutrition_'
'malitbog_'
'malgache_'
'malformed_'
'malformations_'
'malformation_'
'malewana_'
'males_'
'maldivian_'
'maldives_'
'malda_'
'malcolm_'
'malc_'
'malayali_'
'malayalam_'
'malapropisms_'
'mala_'
'mako_'
'makka_'
'makeup_'
'makersÃ_'
'makeover_'
'majorna_'
'majorities_'
'majlis_'
'maize_'
'maiwenn_'
'maison_'
'mairi_'
'maior_'
'maintains_'
'maintainers_'
'mainline_'
'mainframes_'
'mainframe_'
'maine_'
'mails_'
'mai_'
'mahogany_'
'mahim_'
'mahavihar_'
'maha_'
'maguindanao_'
'mago_'
'magnus_'
'magnum_'
'magnolia_'
'magnifier_'
'magnesian_'
'magi_'
'maghreb_'
'magdalene_'
'magar_'
'maff_'
'madre_'
'madness_'
'madmud_'
'madina_'
'madiga_'
'madhya_'
'madge_'
'madelene_'
'madejski_'
'madding_'
'mad_'
'macroscopic_'
'macros_'
'macromedia_'
'macro_'
'macquarieÃ_'
'macquarie_'
'mackintosh_'
'mackerel_'
'mack_'
'macintosh_'
'machinations_'
'machina_'
'maces_'
'macarthur_'
'mabel_'
'maasin_'
'maan_'
'm8s_'
'm4a2_'
'lÃ_'
'lysenko_'
'lyricist_'
'lyric_'
'lynx_'
'lynsters_'
'lyness_'
'lyndbaum_'
'lynchwater_'
'lynch_'
'lymphatic_'
'lymph_'
'lydersen_'
'lyd_'
'lycurgus_'
'lycos_'
'lyceum_'
'luzon_'
'luxurious_'
'luxuries_'
'lustre_'
'lustig_'
'lurgy_'
'lure_'
'lunisolar_'
'lungs_'
'lunatics_'
'lulu_'
'ludhiana_'
'lucknow_'
'luckenbach_'
'lucio_'
'lucerne_'
'lucan_'
'luc_'
'lswr_'
'lshoin_'
'lscÂ_'
'lsas_'
'lrps_'
'lrn_'
'lps_'
'loyola_'
'loyd_'
'loyalists_'
'loyalist_'
'loy_'
'lowland_'
'lowell_'
'loves_'
'lovers_'
'lovely_'
'louvre_'
'lounge_'
'louisiana_'
'louise_'
'louie_'
'loughborough_'
'louder_'
'lotus_'
'lottery_'
'lothair_'
'lostÃ_'
'lorries_'
'loret_'
'lored_'
'lords_'
'loosely_'
'loos_'
'loop_'
'loomed_'
'looky_'
'loo_'
'lonsdale_'
'longmarket_'
'longitude_'
'longest_'
'loneliness_'
'londonÃ_'
'londoners_'
'londonderry_'
'lomu_'
'lomond_'
'lombards_'
'lombard_'
'lolita_'
'lolfa_'
'loko_'
'lok_'
'loire_'
'loh_'
'logos_'
'logistics_'
'login_'
'loggerhead_'
'logged_'
'logan_'
'lofty_'
'loeblich_'
'lodges_'
'lodged_'
'locum_'
'loco_'
'locks_'
'lockport_'
'locker_'
'loci_'
'lochs_'
'lochan_'
'loch_'
'locating_'
'locality_'
'localised_'
'loblaws_'
'lobbying_'
'loanwords_'
'lms_'
'lm_'
'llÃ_'
'llywelyn_'
'lls_'
'lloyd_'
'lleyton_'
'lld_'
'lizumi_'
'liveried_'
'liu_'
'littlewood_'
'littleton_'
'litter_'
'litres_'
'litigants_'
'lithuanians_'
'lithographs_'
'lithgow_'
'literal_'
'liter_'
'lit_'
'listerine_'
'listener_'
'lisp_'
'liquids_'
'lips_'
'lipoproteins_'
'lions_'
'linn_'
'linkages_'
'lining_'
'lingual_'
'lingers_'
'lingering_'
'lingered_'
'lineker_'
'lined_'
'lineage_'
'lindros_'
'lind_'
'lincolnshire_'
'limo_'
'limestones_'
'limestone_'
'lime_'
'limber_'
'limb_'
'lily_'
'lilting_'
'lilly_'
'likutey_'
'likewise_'
'likenesses_'
'lightweight_'
'lightly_'
'lighter_'
'lighten_'
'ligaments_'
'lifting_'
'lifted_'
'lifeÂ_'
'lifestyles_'
'lifespans_'
'lifes_'
'lifelong_'
'lifeboats_'
'lid_'
'lichfield_'
'lichens_'
'licensors_'
'licenced_'
'libya_'
'libresource_'
'libre_'
'librarianship_'
'libertarians_'
'liberian_'
'liberators_'
'liberation_'
'liberals_'
'liberalism_'
'libbed_'
'libary_'
'libanoticaÃ_'
'liars_'
'liaison_'
'liable_'
'lftonspiel_'
'lftonmusik_'
'lfb_'
'leyland_'
'lexis_'
'lexington_'
'lexicon_'
'levy_'
'levis_'
'levers_'
'levees_'
'leurics_'
'leukemia_'
'leu_'
'lettuces_'
'lettering_'
'lettered_'
'letran_'
'leslie_'
'les_'
'lerner_'
'lep_'
'leontia_'
'leone_'
'leonardo_'
'leonard_'
'lenten_'
'lent_'
'lenses_'
'lennon_'
'leninism_'
'lengthy_'
'lengths_'
'lend_'
'lemon_'
'lemmatiser_'
'lelydorp_'
'lehmann_'
'legislators_'
'legionary_'
'legion_'
'legio_'
'legally_'
'legalize_'
'leg_'
'leeuwin_'
'ledge_'
'lecturing_'
'lectures_'
'lectionaries_'
'lechuck_'
'lechte_'
'lebanese_'
'leavers_'
'leasowes_'
'leases_'
'leas_'
'leap_'
'lean_'
'leaking_'
'leaked_'
'leaflet_'
'leaf_'
'leaded_'
'leachÂ_'
'lea_'
'ld_'
'lazarus_'
'lazard_'
'layton_'
'lays_'
'layouts_'
'layers_'
'layered_'
'laxatives_'
'lawyer_'
'lawsuits_'
'lawson_'
'lawmakers_'
'lavigne_'
'laver_'
'lavenham_'
'laurvig_'
'laurie_'
'laurentide_'
'laurent_'
'laurence_'
'laurels_'
'laurel_'
'laureateships_'
'laundering_'
'launderette_'
'laughs_'
'laughing_'
'laugh_'
'latterÂ_'
'lato_'
'latitudes_'
'latins_'
'latinized_'
'latifah_'
'latif_'
'latex_'
'laterite_'
'laterals_'
'latency_'
'lately_'
'lat_'
'lasers_'
'laser_'
'larvae_'
'larssonÃ_'
'larson_'
'lars_'
'larentiu_'
'lap_'
'lanzhou_'
'lanyards_'
'lanner_'
'lankan_'
'lanka_'
'languedoc_'
'langkawi_'
'langenites_'
'langen_'
'landward_'
'landrovers_'
'landrover_'
'landmasses_'
'landmark_'
'landless_'
'landis_'
'landings_'
'landguard_'
'landforms_'
'landform_'
'landfill_'
'landfall_'
'lancet_'
'lancaster_'
'lamps_'
'lamotrigine_'
'laminated_'
'laminate_'
'lamented_'
'lambeosaurine_'
'lamar_'
'lallans_'
'lakota_'
'lakhimpur_'
'lakhey_'
'lakebed_'
'lairds_'
'laining_'
'lain_'
'lagos_'
'lagoon_'
'lagenalis_'
'laffer_'
'ladybug_'
'ladder_'
'lactulose_'
'lactate_'
'lacquered_'
'laces_'
'laced_'
'lace_'
'labyrinthe_'
'labyrinth_'
'labs_'
'labourÃ_'
'labelling_'
'kÃ_'
'kyi_'
'kwan_'
'kuujjuarapik_'
'kush_'
'kurt_'
'kursanti_'
'kurosawa_'
'kurds_'
'kuppam_'
'kunming_'
'kunama_'
'kumaris_'
'kulintang_'
'kubota_'
'kubiszewski_'
'ksv_'
'kshatriya_'
'ks5_'
'kronstadt_'
'krewes_'
'kpis_'
'kpc_'
'kotobuki_'
'kora_'
'konispol_'
'konishi_'
'koni_'
'kongÃ_'
'kong_'
'konduru_'
'kombÃ_'
'kolokotronis_'
'kolkai_'
'kolata_'
'koji_'
'ko_'
'knowlegable_'
'knowledgebase_'
'knots_'
'knockouts_'
'knife_'
'knesset_'
'knelt_'
'knees_'
'kneelers_'
'kn_'
'kleiberg_'
'kla_'
'kkn_'
'kjv_'
'kjetil_'
'kj_'
'kiyosaki_'
'kiyomasa_'
'kiwi_'
'kitty_'
'kittiwakes_'
'kitten_'
'kites_'
'kitchenette_'
'kita_'
'kissing_'
'kiskadees_'
'kis_'
'kirszenbaum_'
'kirsty_'
'kirkpatrick_'
'kirk_'
'kirby_'
'kiplinger_'
'kipcha_'
'kinsman_'
'kinross_'
'kinky_'
'kingsport_'
'kingdoms_'
'kindly_'
'kilometres_'
'kiln_'
'killings_'
'killers_'
'killer_'
'kiesselbach_'
'kido_'
'kidneys_'
'kidder_'
'kidd_'
'kid_'
'kicks_'
'kickbacks_'
'kick_'
'kichhauchha_'
'kibron_'
'khs_'
'khans_'
'khang_'
'khan_'
'khamaseen_'
'kham_'
'khalil_'
'kfar_'
'kfan_'
'keywords_'
'keys_'
'keynes_'
'keyhoe_'
'keyboards_'
'kew_'
'kevork_'
'kettles_'
'kestrel_'
'kernel_'
'kerik_'
'kerbside_'
'kep_'
'kentish_'
'kensington_'
'kenny_'
'kennedy_'
'kenji_'
'kendricks_'
'kelly_'
'keller_'
'keith_'
'keepipng_'
'keeper_'
'keenly_'
'keener_'
'keele_'
'kebab_'
'keb_'
'keat_'
'kda_'
'kc_'
'kayihenda_'
'kay_'
'kaufman_'
'katzenelson_'
'katyn_'
'kattingeri_'
'katm_'
'katha_'
'kasanke_'
'karuruma_'
'karshi_'
'karriem_'
'karra_'
'karlsruhe_'
'karl_'
'karkowski_'
'karinto_'
'karim_'
'karemma_'
'karbi_'
'karayu_'
'karaoki_'
'karamÃ_'
'karamelodiktstipendiet_'
'karam_'
'karad_'
'karachi_'
'kapoor_'
'kantamraju_'
'kannada_'
'kangaroos_'
'kanada_'
'kamrup_'
'kamoras_'
'kamchatsky_'
'kalinin_'
'kalenjin_'
'kal_'
'kajiwara_'
'kaiserslautern_'
'kai_'
'kagetoki_'
'kagan_'
'kafka_'
'kachm_'
'kabuto_'
'kaborogota_'
'kaafu_'
'jÃ³zef_'
'jÃ²dar_'
'jÃªn_'
'jyhad_'
'juveniles_'
'justÃ_'
'justin_'
'justify_'
'justified_'
'justices_'
'jurisdictions_'
'jurisdiction_'
'juraÃ_'
'jurassic_'
'junkanoo_'
'juniors_'
'junebug_'
'juneau_'
'junctures_'
'junc_'
'jumps_'
'jumpin_'
'jumpers_'
'juliÃ_'
'julius_'
'juliet_'
'julianne_'
'juilliard_'
'judson_'
'judicial_'
'judgment_'
'judging_'
'judged_'
'judge_'
'judaism_'
'jpegs_'
'joyriders_'
'josquin_'
'joshua_'
'joshi_'
'jorma_'
'jorhat_'
'jorge_'
'jordi_'
'jordanians_'
'jordan_'
'joolz_'
'jontÃ_'
'jonny_'
'jongeleurs_'
'jong_'
'jonathan_'
'jon_'
'jolliffe_'
'jokes_'
'joker_'
'jointly_'
'johnston_'
'johannes_'
'johals_'
'jogging_'
'joerg_'
'jody_'
'jochpass_'
'jocasta_'
'jobcentre_'
'joan_'
'joachim_'
'jo_'
'jncc_'
'jna_'
'jives_'
'jigsaw_'
'jichm_'
'ji_'
'jewitt_'
'jewels_'
'jewelry_'
'jewellers_'
'jewelled_'
'jewel_'
'jesuit_'
'jesters_'
'jesse_'
'jerked_'
'jerkbaits_'
'jericho_'
'jeopardises_'
'jensen_'
'jenny_'
'jennings_'
'jennie_'
'jemima_'
'jem_'
'jehoszua_'
'jeffersonville_'
'jeep_'
'jeddah_'
'jedburgh_'
'jeck_'
'jeat_'
'jcr_'
'jazzmen_'
'jayne_'
'jay_'
'jawaharlal_'
'javascript_'
'javapos_'
'javabeans_'
'jats_'
'jason_'
'jarvis_'
'jars_'
'jarman_'
'japp_'
'japonica_'
'jannard_'
'janis_'
'jangly_'
'janey_'
'jane_'
'jamra_'
'jamie_'
'jamaican_'
'jamaat_'
'jam_'
'jalandhar_'
'jake_'
'jain_'
'jai_'
'jaggedly_'
'jagannath_'
'jagadambi_'
'jade_'
'jacobean_'
'jacksonville_'
'jacks_'
'jackfish_'
'iÃ_'
'izzy_'
'iyer_'
'iwk_'
'ivory_'
'ivorian_'
'ivanhoe_'
'ivan_'
'iulius_'
'itÃ_'
'itzhak_'
'itv1_'
'itunes_'
'ithyphallic_'
'ithout_'
'ithaca_'
'item_'
'itching_'
'itabashi_'
'isuzu_'
'isurus_'
'isthmian_'
'istanbul_'
'issuing_'
'israelite_'
'israelis_'
'isotopes_'
'isolates_'
'isolate_'
'iso_'
'isnterviewed_'
'isntallation_'
'isnt_'
'isminthians_'
'isles_'
'islanders_'
'islamÂ_'
'islamabad_'
'isbell_'
'irretrievably_'
'irresponsible_'
'irrespective_'
'irrelevant_'
'irrationally_'
'ironton_'
'ironically_'
'ironed_'
'irksome_'
'irfan_'
'ireneusz_'
'iraqis_'
'iq_'
'ipsilateral_'
'ipods_'
'ipod_'
'ipo_'
'ipdjian_'
'ion_'
'ioexception_'
'ioctl_'
'inÂ_'
'inward_'
'involuntary_'
'invoked_'
'invitation_'
'investing_'
'investigates_'
'invertebrates_'
'invertebrate_'
'inversely_'
'invercargill_'
'inventories_'
'inventive_'
'invasive_'
'invasions_'
'invalids_'
'invalid_'
'invaders_'
'invader_'
'invade_'
'inuktitut_'
'intuitiveness_'
'intuitive_'
'intuit_'
'intrusive_'
'intruders_'
'introductions_'
'intrigued_'
'intricate_'
'intravenous_'
'intoxicated_'
'intoning_'
'intolerably_'
'intolerable_'
'intimidating_'
'intimacy_'
'intestines_'
'interwar_'
'interviewees_'
'intervene_'
'interstellar_'
'interstates_'
'intersections_'
'interruption_'
'interrupted_'
'interrogation_'
'interprets_'
'interpreters_'
'interpreter_'
'interpreted_'
'interpretative_'
'interpret_'
'interplay_'
'interpersonal_'
'interoperability_'
'interns_'
'internment_'
'internationalization_'
'internally_'
'interments_'
'intermarried_'
'interlinked_'
'interim_'
'interforum_'
'interferon_'
'interfere_'
'interestingly_'
'interdisciplinary_'
'interdimensional_'
'intercrater_'
'interconnected_'
'intercollegiate_'
'interchanges_'
'interchange_'
'intercepted_'
'intercept_'
'interacting_'
'interacted_'
'interact_'
'intentioned_'
'intentionally_'
'intensively_'
'intensify_'
'intending_'
'intelligible_'
'intellectually_'
'intel_'
'integrating_'
'integrable_'
'intabulations_'
'insurmountable_'
'insurgency_'
'insurers_'
'insulated_'
'insufficient_'
'instrumentation_'
'institutionÃ_'
'institutes_'
'institut_'
'instinct_'
'instill_'
'instalments_'
'installments_'
'installation_'
'inspires_'
'inspirational_'
'inspectors_'
'inspectorate_'
'inspector_'
'inspecting_'
'insoluble_'
'insisted_'
'insincere_'
'insider_'
'inset_'
'inserts_'
'inserted_'
'insert_'
'insdc_'
'inscription_'
'inscribed_'
'insatiable_'
'insane_'
'ins_'
'inquisitive_'
'inquiring_'
'inquests_'
'inoceramid_'
'innumerable_'
'innovators_'
'innocentÂ_'
'innocence_'
'innit_'
'innings_'
'inning_'
'inmate_'
'inline_'
'inlets_'
'inkling_'
'injustice_'
'injection_'
'injectable_'
'initiated_'
'initiate_'
'initialization_'
'inital_'
'inhumations_'
'inhibitory_'
'inhibitor_'
'inhibition_'
'inherits_'
'inheritance_'
'inherit_'
'inherent_'
'inhalational_'
'ingres_'
'ingest_'
'ingenious_'
'infringement_'
'infringe_'
'infrequently_'
'infrequent_'
'informs_'
'informants_'
'inform_'
'inflow_'
'inflexible_'
'inflected_'
'inflaming_'
'inflamed_'
'infirm_'
'infiltrate_'
'infield_'
'infidels_'
'infested_'
'infectious_'
'infect_'
'infants_'
'infantry_'
'infancy_'
'infamous_'
'infallible_'
'inextricably_'
'inexorably_'
'inexhaustive_'
'inertial_'
'inertia_'
'inert_'
'inequality_'
'inequalities_'
'inept_'
'industriesÃ_'
'industrialized_'
'industrialist_'
'indulgence_'
'inducted_'
'induced_'
'indra_'
'indoors_'
'indonesians_'
'indole_'
'individualÃ_'
'individualized_'
'indisputable_'
'indirectly_'
'indirect_'
'indipendant_'
'indiffernt_'
'indifferent_'
'indifference_'
'indicating_'
'indexing_'
'indeterminist_'
'indentured_'
'indented_'
'indentation_'
'indelible_'
'incumbents_'
'incredibly_'
'increasde_'
'incorrectly_'
'incorporation_'
'inconvenient_'
'incontinent_'
'incomprehensible_'
'incompetent_'
'incoming_'
'incomers_'
'inclusive_'
'includeÂ_'
'inclination_'
'incite_'
'incisive_'
'incidentally_'
'incentives_'
'incentive_'
'incense_'
'incendiaries_'
'incas_'
'incarnation_'
'incarcerated_'
'inca_'
'inaugural_'
'inaudible_'
'inadvertently_'
'inadequacy_'
'inaccuracy_'
'imrt_'
'improvised_'
'improves_'
'improperly_'
'imprisoned_'
'impressions_'
'impressed_'
'impractical_'
'impoverished_'
'imposition_'
'imposes_'
'imposed_'
'import_'
'implying_'
'imply_'
'implicitly_'
'implicit_'
'implementing_'
'implementations_'
'implement_'
'implanted_'
'implant_'
'impinged_'
'impetus_'
'imperil_'
'imperialism_'
'impeded_'
'impartial_'
'impacts_'
'impacting_'
'impacted_'
'immutable_'
'immunostimulatory_'
'immortal_'
'immoral_'
'immigrating_'
'immigrate_'
'immersion_'
'imitation_'
'imitating_'
'imbued_'
'imbalance_'
'imaginable_'
'imagery_'
'imagers_'
'im_'
'ilumquh1960_'
'ilpenstein_'
'illustrious_'
'illustration_'
'illustrating_'
'illusions_'
'illusion_'
'illuminated_'
'ills_'
'illicit_'
'illegality_'
'ikeja_'
'iis_'
'iip_'
'ignotus_'
'ignorance_'
'igneous_'
'ige_'
'igbo_'
'igas_'
'ifl_'
'ifkv_'
'ifa_'
'ies_'
'iec61131_'
'idriss_'
'idols_'
'idolaters_'
'idol_'
'idm_'
'idlewild_'
'idioms_'
'identities_'
'identification_'
'identifiably_'
'idalia_'
'icpp_'
'icp_'
'iconic_'
'icj_'
'icicle_'
'ici_'
'ichikoo_'
'icheme_'
'icestar_'
'icebergs_'
'icaew_'
'ica_'
'ic_'
'ibÃ_'
'ibs_'
'ibn_'
'ibibio_'
'ibex_'
'iberia_'
'ib_'
'iain_'
'iaea_'
'iab_'
'iaaf_'
'iaa_'
'ia_'
'hz_'
'hyson_'
'hypsilophodonts_'
'hypotheses_'
'hypoexcitability_'
'hypocritical_'
'hypocrites_'
'hypocaust_'
'hypnotism_'
'hypnotic_'
'hypnotherapists_'
'hypnosis_'
'hypertension_'
'hypermutation_'
'hypermutated_'
'hypermache_'
'hypercalcemia_'
'hydrogen_'
'hydrants_'
'hy_'
'husrnana_'
'husbands_'
'husainpur_'
'hurry_'
'hurley_'
'hurlers_'
'hurdles_'
'hurdle_'
'hunts_'
'hunton_'
'huntington_'
'hunting_'
'hunt_'
'hunger_'
'hungarians_'
'hung_'
'hummingbirds_'
'hummingbird_'
'humility_'
'humiliating_'
'humboldt_'
'humble_'
'humanities_'
'humanitarian_'
'humanistic_'
'humane_'
'huguenot_'
'hugs_'
'hugo_'
'hugh_'
'huey_'
'hue_'
'hudson_'
'hudp_'
'huddled_'
'hubli_'
'hubble_'
'hub_'
'huamanga_'
'htm_'
'hsms_'
'hsm_'
'hsing_'
'hsbc_'
'hrp_'
'href_'
'hoyo_'
'howto_'
'howard_'
'hove_'
'housekeeping_'
'householders_'
'housedeck_'
'housebuilders_'
'hourly_'
'hottest_'
'hotspot_'
'hosting_'
'hostile_'
'hostess_'
'hostages_'
'hospitalised_'
'horticulture_'
'horseshoe_'
'horsemen_'
'horrors_'
'horror_'
'horrified_'
'horrific_'
'horoscopes_'
'hornworm_'
'hornbeam_'
'hormpipe_'
'horizontally_'
'horizontal_'
'horizons_'
'horizon_'
'horie_'
'horfield_'
'hopkinsville_'
'hopefuls_'
'hoped_'
'hopea_'
'hoover_'
'hooked_'
'hoodoo_'
'honours_'
'honourably_'
'honor_'
'honing_'
'honda_'
'hon_'
'homosexual_'
'homology_'
'homologation_'
'homework_'
'homeschooled_'
'homer_'
'homepages_'
'homepage_'
'homeowner_'
'homeothermic_'
'homely_'
'homeless_'
'homage_'
'holstÂ_'
'holmes_'
'hollywoodusa_'
'hollyford_'
'hollow_'
'holli_'
'hollandse_'
'hollanders_'
'holinshed_'
'holidaymakers_'
'holdings_'
'holders_'
'holder_'
'holbein_'
'hogarthian_'
'hog_'
'hoechst_'
'hochhuth_'
'hoc_'
'hob_'
'hoax_'
'hmi_'
'hmgs_'
'hjort_'
'hittin_'
'hitherto_'
'hither_'
'hitchcock_'
'histology_'
'hirsh_'
'hirogen_'
'hires_'
'hiranya_'
'hiram_'
'hips_'
'hippo_'
'hip_'
'hinunangan_'
'hinterland_'
'hinesville_'
'hindumatam_'
'hinduism_'
'hindrance_'
'hindi_'
'hiloni_'
'hilltop_'
'hillside_'
'hillsborough_'
'hiligaynon_'
'hildreth_'
'hijrah_'
'hijackers_'
'hijacker_'
'hijack_'
'highlighting_'
'highlanders_'
'highland_'
'highball_'
'higgs_'
'higgins_'
'hiers_'
'hiding_'
'hiccup_'
'hibernated_'
'hi_'
'hh_'
'heythrop_'
'heyningen_'
'heteronormative_'
'het_'
'hess_'
'hesitate_'
'hertzberg_'
'hertfordshireÂ_'
'hertfordshire_'
'herringman_'
'herring_'
'herrera_'
'herons_'
'heron_'
'heroines_'
'heroic_'
'hernia_'
'hermit_'
'hermanas_'
'herman_'
'heretic_'
'hereinafter_'
'herein_'
'hereditary_'
'herds_'
'herd_'
'hercules_'
'herculaneum_'
'herc_'
'herbst_'
'herbie_'
'herbert_'
'herausgeben_'
'hepatocyte_'
'hepatitis_'
'henryk_'
'henriette_'
'henge_'
'hendry_'
'hempstead_'
'hemphill_'
'hemistour_'
'hemingway_'
'hemel_'
'helweh_'
'helsinki_'
'helmand_'
'hellÃ_'
'hellman_'
'hellhole_'
'heliocentric_'
'helif_'
'heinous_'
'heinlein_'
'heinemann_'
'heightening_'
'hegemony_'
'hefty_'
'heel_'
'heed_'
'heds_'
'hectic_'
'hecker_'
'hec_'
'hebbronville_'
'hebbar_'
'heaviest_'
'heavenward_'
'heavenly_'
'heaven_'
'heartline_'
'heartland_'
'hearted_'
'heartbeat_'
'hearsay_'
'hearing_'
'heap_'
'healers_'
'healed_'
'heal_'
'headship_'
'heads_'
'headrests_'
'headmasters_'
'headings_'
'headingley_'
'headhunters_'
'hdt_'
'hds_'
'hdpe_'
'hd_'
'hazelbury_'
'hazaribag_'
'hazardous_'
'hazard_'
'hayward_'
'haymarket_'
'hay_'
'hawthorn_'
'hawick_'
'hawaiÃ_'
'hawaii_'
'hawa_'
'havlis_'
'haves_'
'havering_'
'haverfordwest_'
'haven_'
'haveli_'
'havana_'
'haute_'
'hautbois_'
'haut_'
'haustoria_'
'hausswolff_'
'haunt_'
'hauled_'
'haugen_'
'hauer_'
'hathaÃ_'
'hath_'
'hate_'
'hatches_'
'hatched_'
'hatch_'
'haswell_'
'hastily_'
'hasten_'
'hasse_'
'hassane_'
'hasidim_'
'harvey_'
'harvested_'
'harvest_'
'harvard_'
'hartlepool_'
'hart_'
'harsh_'
'harrow_'
'harrison_'
'harrisburg_'
'harriet_'
'harpur_'
'harold_'
'harnett_'
'harmonium_'
'harmonisation_'
'harmonies_'
'harmonic_'
'harland_'
'haringey_'
'hare_'
'hardwood_'
'hardliners_'
'hardiest_'
'hardest_'
'harder_'
'hardeners_'
'hardcore_'
'hardcopy_'
'hardbitten_'
'harbours_'
'harbouring_'
'harbour_'
'harbors_'
'harbored_'
'harassment_'
'harassed_'
'harah_'
'har_'
'hapupu_'
'happiness_'
'happiest_'
'happier_'
'haplotypes_'
'hants_'
'hanoi_'
'hannah_'
'hanlons_'
'hangs_'
'hanged_'
'handwritten_'
'handsome_'
'handles_'
'handler_'
'handlamps_'
'handkerchiefs_'
'handiwork_'
'handing_'
'handicrafts_'
'handheld_'
'handbrake_'
'handbook_'
'hampshire_'
'hammerstein_'
'hammer_'
'hamlets_'
'hamams_'
'hamada_'
'halt_'
'halo_'
'halna_'
'halley_'
'halikutim_'
'halfway_'
'halesowen_'
'halen_'
'halal_'
'hal_'
'haiti_'
'hairy_'
'haired_'
'hairdryer_'
'hairdressing_'
'hairdressers_'
'hagman_'
'hagerstown_'
'hagelin_'
'haerlin_'
'hadrosaurine_'
'hadrosaur_'
'haden_'
'hadar_'
'hacking_'
'hack_'
'habiting_'
'habit_'
'haber_'
'habanero_'
'haag_'
'ha_'
'h804_'
'h38_'
'h2s_'
'gyro_'
'gyres_'
'gypsum_'
'gyms_'
'gymnasts_'
'gxine_'
'gwr_'
'gw_'
'guzmÃ_'
'guy_'
'gustavo_'
'gurpreet_'
'gurkha_'
'gurion_'
'gurdas_'
'gupta_'
'guomindang_'
'guntur_'
'guntersville_'
'gunslingers_'
'gunpowders_'
'gunports_'
'gunnislake_'
'gunnar_'
'gummer_'
'gulls_'
'gullies_'
'gulik_'
'gulag_'
'guise_'
'guis_'
'guira_'
'guinness_'
'guin_'
'guiltily_'
'guilds_'
'guido_'
'guiana_'
'gui_'
'guevara_'
'guestrooms_'
'guerrillas_'
'guerra_'
'guardian_'
'guarantees_'
'guan_'
'guadeloupe_'
'gt6_'
'gst_'
'gsbs_'
'grynaeus_'
'growers_'
'groupings_'
'groundwork_'
'grounders_'
'groundbreaking_'
'grottoes_'
'grotesque_'
'grossman_'
'groover_'
'groove_'
'groom_'
'groningan_'
'grommet_'
'groin_'
'grocery_'
'groce_'
'grizel_'
'gritstone_'
'grips_'
'grins_'
'grindal_'
'grimy_'
'grimworm_'
'grimethorpe_'
'grimbold_'
'grim_'
'grievance_'
'grieg_'
'gremlins_'
'gregorian_'
'greg_'
'greenshifters_'
'greensboro_'
'greenpeace_'
'greenock_'
'greenman_'
'greeneville_'
'greenbaum_'
'greenaway_'
'greed_'
'grecian_'
'grebe_'
'greats_'
'grazed_'
'graze_'
'graywolf_'
'graystone_'
'gravures_'
'gravitas_'
'graveyard_'
'gravel_'
'gratulation_'
'grating_'
'grate_'
'grassland_'
'grassbag_'
'grass_'
'graphs_'
'granting_'
'grantholders_'
'granja_'
'granitic_'
'granite_'
'grange_'
'grandson_'
'grandmother_'
'grandad_'
'graining_'
'grainger_'
'grain_'
'grahamÃ_'
'grahams_'
'graham_'
'grafton_'
'graffiti_'
'graf_'
'gradual_'
'grading_'
'gradients_'
'grad_'
'gracilipes_'
'gracie_'
'grab_'
'gpsmap_'
'gpr_'
'governorate_'
'governmentally_'
'governesses_'
'govanites_'
'govan_'
'gould_'
'gough_'
'gotten_'
'gotra_'
'gosho_'
'gosen_'
'goryeo_'
'gorodetsky_'
'gorkha_'
'gorilla_'
'gorgo_'
'gorges_'
'gorgeousÃ_'
'gorgeous_'
'goranger_'
'gorakhpur_'
'gorai_'
'gopeng_'
'goose_'
'goonlaa_'
'goodwill_'
'goodsir_'
'goodness_'
'goodlisteners_'
'goodies_'
'goodbody_'
'goo_'
'gonzo_'
'gonna_'
'gong_'
'golpur_'
'golpashan_'
'goliath_'
'golgi_'
'golfing_'
'goldwax_'
'goldschmidt_'
'goldkette_'
'goldendrop_'
'goings_'
'goin_'
'gogo_'
'godÃ_'
'godsgirls_'
'godley_'
'godavarru_'
'gobel_'
'goathland_'
'goat_'
'goalpara_'
'gnr_'
'gmplayer_'
'glycosylated_'
'glycans_'
'glycan_'
'glumly_'
'glowtagsÂ_'
'gloucestershire_'
'glossopteris_'
'glossier_'
'glory_'
'glorious_'
'globalÂ_'
'globalisation_'
'glitches_'
'glimpses_'
'gliders_'
'glg_'
'glew_'
'glenmavis_'
'gleefully_'
'glebes_'
'gleaming_'
'glaser_'
'glands_'
'glanced_'
'glamour_'
'gladstone_'
'gla_'
'givers_'
'giveaway_'
'giro_'
'girlies_'
'giraffe_'
'giovanni_'
'ginzburg_'
'ginsberg_'
'gini_'
'gimmicks_'
'gilmore_'
'gills_'
'gillows_'
'gillette_'
'gill_'
'gilead_'
'gilbertson_'
'gilbert_'
'gila_'
'giglio_'
'giggle_'
'gigantic_'
'gigaflps_'
'gifted_'
'gibraltar_'
'gibbs_'
'gibbon_'
'gibbesÃ_'
'gibbes_'
'giantkilling_'
'giannakopolous_'
'gi_'
'ghuggi_'
'ghetto_'
'ghastly_'
'ghana_'
'gg_'
'gezira_'
'gettysburg_'
'gers_'
'germinated_'
'germanic_'
'gereshk_'
'gepard_'
'georgics_'
'georgian_'
'georgi_'
'geometrical_'
'geometric_'
'geolocation_'
'geographic_'
'geographers_'
'genuses_'
'genuinely_'
'genrikh_'
'genres_'
'genotypes_'
'genomes_'
'genome_'
'genoa_'
'geneva_'
'genesee_'
'generate_'
'generalize_'
'generalising_'
'genealogies_'
'genadii_'
'gems_'
'gemfibrozil_'
'gem_'
'gelsenkirchen_'
'geller_'
'gelder_'
'gecekondu_'
'geat_'
'gearloose_'
'ge_'
'gdp_'
'gbagbo_'
'gazmuri_'
'gazetteer_'
'gazette_'
'gaza_'
'gaussian_'
'gaudi_'
'gato_'
'gatherings_'
'gathering_'
'gather_'
'gatecrash_'
'gastropods_'
'gastroenterology_'
'gassed_'
'gaskins_'
'gascon_'
'gary_'
'gartner_'
'garrett_'
'garminsp2610_'
'garmented_'
'garioch_'
'gargoyles_'
'gargabe_'
'gardner_'
'gardening_'
'gardea_'
'garde_'
'garda_'
'garbage_'
'garage_'
'gaps_'
'gaol_'
'gannon_'
'gangsters_'
'ganged_'
'gandhian_'
'gander_'
'gandan_'
'ganam_'
'gamecube_'
'gamble_'
'gamal_'
'galuh_'
'gallotta_'
'galloped_'
'galleria_'
'galaxy_'
'galatea_'
'gait_'
'gainford_'
'gaily_'
'gags_'
'gag_'
'gadimova_'
'gadgets_'
'gab_'
'gaa_'
'g200_'
'fÃ_'
'fw_'
'futuristic_'
'futurama_'
'futility_'
'fussy_'
'fusion_'
'fusing_'
'fuselages_'
'fuselage_'
'furnishings_'
'furnished_'
'furnish_'
'fur_'
'funnelled_'
'fungus_'
'funerals_'
'fundraisers_'
'fundamentally_'
'fundamentalist_'
'fundamentalism_'
'functionaries_'
'functionalism_'
'fumÃ_'
'fumigation_'
'fulshear_'
'fullfill_'
'fullest_'
'fulfilment_'
'fulcrum_'
'fulci_'
'fujitsu_'
'fujian_'
'fugitive_'
'fuels_'
'fueled_'
'fudged_'
'fucking_'
'fuck_'
'ftl_'
'ft_'
'fsp_'
'fsk_'
'frustrations_'
'frustrated_'
'fruitful_'
'fruitcake_'
'fructose_'
'frost_'
'frontrunners_'
'fro_'
'friz_'
'frightening_'
'frigates_'
'friendships_'
'friedrich_'
'friedman_'
'fried_'
'fridays_'
'friar_'
'freygang_'
'fresco_'
'frequency_'
'fremont_'
'frelimo_'
'freleng_'
'freighters_'
'freeze_'
'freeview_'
'freethy_'
'freephone_'
'freeman_'
'freemail_'
'freehand_'
'frederiksen_'
'frederickton_'
'frederick_'
'fred_'
'freaks_'
'frayed_'
'fraught_'
'frauds_'
'fraternities_'
'fraser_'
'franÃ_'
'frankly_'
'frankland_'
'francophonie_'
'francisci_'
'franchises_'
'franchise_'
'framers_'
'framer_'
'framed_'
'frail_'
'fragmentary_'
'fractures_'
'fpi_'
'foz_'
'foundry_'
'fossilized_'
'forwards_'
'fortunately_'
'fortress_'
'forthcoming_'
'fort_'
'forney_'
'formulate_'
'formulas_'
'formulaic_'
'formers_'
'formative_'
'formations_'
'formalized_'
'fork_'
'foriegn_'
'forgotten_'
'forgive_'
'forge_'
'forfeited_'
'forethought_'
'forested_'
'foresaw_'
'fores_'
'forensic_'
'foreman_'
'foreigners_'
'foregoing_'
'foredeck_'
'forecasts_'
'forecasting_'
'forcing_'
'forceps_'
'forbidding_'
'forbidden_'
'forbears_'
'forbade_'
'forage_'
'fora_'
'footpaths_'
'foothills_'
'foolishly_'
'foodstuffs_'
'fonts_'
'fondest_'
'folksongs_'
'folklore_'
'folkes_'
'folios_'
'foliate_'
'foliage_'
'folders_'
'folded_'
'fold_'
'foenander_'
'focussed_'
'fob_'
'foam_'
'foal_'
'fms_'
'fmb_'
'flywheel_'
'flyovers_'
'flynn_'
'flyers_'
'flyable_'
'flute_'
'flurry_'
'fluent_'
'flue_'
'flown_'
'flowing_'
'flowering_'
'flowed_'
'flour_'
'floridan_'
'floridablanca_'
'florentine_'
'flore_'
'floppy_'
'flooring_'
'floodplain_'
'flooded_'
'floats_'
'floating_'
'floated_'
'flipping_'
'flip_'
'fling_'
'flimsy_'
'fliers_'
'flexibilty_'
'fleets_'
'flee_'
'fledged_'
'flawless_'
'flaw_'
'flavor_'
'flavoproteins_'
'flatbottomed_'
'flashback_'
'flaring_'
'flared_'
'flank_'
'flamethrower_'
'flame_'
'flakpanzer_'
'flakes_'
'flail_'
'flagstones_'
'flagship_'
'flags_'
'fjÃ_'
'fixtures_'
'fixing_'
'fixes_'
'fixated_'
'fix_'
'fiveman_'
'fitter_'
'fitanova_'
'fistful_'
'fissure_'
'fisons_'
'fishes_'
'fishergate_'
'fishburn_'
'fish4jobs_'
'firth_'
'firstly_'
'firmÃ_'
'firmware_'
'firmly_'
'firkins_'
'firewall_'
'firefighting_'
'firebox_'
'firearms_'
'firearm_'
'fiqh_'
'fiori_'
'finns_'
'finishing_'
'finishes_'
'fingerprints_'
'fingerprint_'
'fingering_'
'fingerholes_'
'finely_'
'financially_'
'finalist_'
'filthy_'
'filters_'
'filmmaking_'
'filling_'
'fill_'
'filipino_'
'filing_'
'fiesta_'
'fiercely_'
'fiends_'
'fielding_'
'fielder_'
'fielded_'
'fidgety_'
'fiddling_'
'fiddler_'
'fictitious_'
'fictions_'
'ficciones_'
'fibronectin_'
'fibromyalgia_'
'fibrillation_'
'fibre_'
'fibrates_'
'fiber_'
'fiat_'
'fiabelloides_'
'fgs_'
'fez_'
'fever_'
'feuds_'
'fetish_'
'feted_'
'fetched_'
'fetch_'
'festivities_'
'fertilisation_'
'fertile_'
'ferruginous_'
'ferritin_'
'ferris_'
'ferried_'
'ferrie_'
'ferocious_'
'fernando_'
'feral_'
'fenton_'
'fens_'
'fennywolders_'
'fennas_'
'feng_'
'fences_'
'fenced_'
'femme_'
'feltham_'
'felony_'
'fellowships_'
'fella_'
'feeders_'
'feeder_'
'federalists_'
'feazel_'
'feast_'
'feared_'
'fda_'
'fd_'
'fcw_'
'fct_'
'fc_'
'fbi_'
'fazes_'
'favours_'
'favoured_'
'favourable_'
'favored_'
'fatuity_'
'fatigues_'
'fateh_'
'fatalities_'
'fatale_'
'fashioned_'
'fascism_'
'fascinating_'
'farts_'
'farrant_'
'farrakhan_'
'faroese_'
'farmhouses_'
'farmhouse_'
'farmaround_'
'farinosa_'
'farewell_'
'fared_'
'faq_'
'faos_'
'fangs_'
'fandom_'
'fanclub_'
'fanciful_'
'fancies_'
'fanaticism_'
'famines_'
'famine_'
'familyÃ_'
'familiarity_'
'fallujah_'
'fallout_'
'fallen_'
'fallback_'
'falkland_'
'falke_'
'faking_'
'fake_'
'fajita_'
'faithless_'
'faisal_'
'fairey_'
'fairbanks_'
'failured_'
'failing_'
'fagus_'
'faded_'
'fade_'
'factually_'
'factsheet_'
'factions_'
'facilitating_'
'fabrics_'
'fabricators_'
'fabrication_'
'fable_'
'faa_'
'f5_'
'f4_'
'f27_'
'f011_'
'ezra_'
'ez_'
'eyewitnesses_'
'eyed_'
'exude_'
'extremity_'
'extremes_'
'extrasolar_'
'extraordinary_'
'extradition_'
'extraction_'
'extracted_'
'extract_'
'extolled_'
'extirpated_'
'extinguisher_'
'extermination_'
'exteriors_'
'extends_'
'extemporised_'
'expressways_'
'expressions_'
'expression_'
'exporter_'
'export_'
'explosives_'
'explosions_'
'explosion_'
'exploring_'
'explorers_'
'explorer_'
'exploiting_'
'exploited_'
'exploit_'
'explicit_'
'explanations_'
'explaining_'
'expertly_'
'experimentation_'
'experian_'
'expended_'
'expellees_'
'expelled_'
'expeditions_'
'expeditioning_'
'expeditionary_'
'expects_'
'expectations_'
'expectantly_'
'exotics_'
'exoticism_'
'exonerated_'
'exodus_'
'exocytic_'
'exits_'
'existant_'
'exiled_'
'exhortations_'
'exhortation_'
'exhibitionsÂ_'
'exhibitions_'
'exhibited_'
'exhausts_'
'exhausted_'
'exhaust_'
'exemption_'
'exempt_'
'exemplary_'
'exemplar_'
'execs_'
'excursions_'
'exculpated_'
'exchanged_'
'excess_'
'exceeds_'
'exceedingly_'
'exceedences_'
'exceedance_'
'excavations_'
'exasperation_'
'examinations_'
'exalted_'
'exaggerations_'
'exaggerated_'
'exaggerate_'
'ewla_'
'ewes_'
'ewattingen_'
'evwaraye_'
'evolutions_'
'evokes_'
'evocative_'
'evidently_'
'evictions_'
'everybody_'
'everton_'
'everest_'
'evercy_'
'eventuated_'
'eventual_'
'evensong_'
'evenings_'
'evelyn_'
'evaporation_'
'evan_'
'evaluations_'
'evaluated_'
'evacuation_'
'evacuated_'
'eva_'
'ev_'
'eutrophication_'
'euryarchaeota_'
'eurovision_'
'euros_'
'europiskaya_'
'eurobarometer_'
'euripides_'
'euripidean_'
'eunice_'
'eulogy_'
'euchromatic_'
'etyres_'
'etymologies_'
'etrex_'
'etobicoke_'
'eti_'
'ethnographers_'
'ethnicity_'
'ethnically_'
'ethiopian_'
'ethane_'
'etesia_'
'eternally_'
'etched_'
'estuary_'
'estrogens_'
'estranged_'
'ester_'
'estella_'
'esteem_'
'establish_'
'est_'
'essiac_'
'essex_'
'essat_'
'esrl_'
'esquire_'
'esque_'
'esq_'
'esplanade_'
'esperanto_'
'especial_'
'escorting_'
'escorted_'
'eschew_'
'eschatological_'
'escapees_'
'es_'
'erythritol_'
'erupting_'
'erupted_'
'erratic_'
'erosive_'
'ernesto_'
'ernest_'
'ernakulam_'
'eritreans_'
'erin_'
'erickson_'
'erckmann_'
'erase_'
'er_'
'equina_'
'equatorial_'
'equator_'
'equations_'
'eps15_'
'epithets_'
'epithet_'
'epithelial_'
'epistemology_'
'epileptic_'
'epidermal_'
'epicurean_'
'epic_'
'epa_'
'eos_'
'eon_'
'envisages_'
'envisaged_'
'environs_'
'environ_'
'enviable_'
'envelope_'
'enumerate_'
'entrepreneurs_'
'entrecasteaux_'
'entrances_'
'entitled_'
'enthusiastically_'
'enthoven_'
'enters_'
'enterprise_'
'entente_'
'entailed_'
'ensuing_'
'ensnared_'
'enslaved_'
'enshrined_'
'ensemble_'
'enschede_'
'enron_'
'enrollment_'
'enriching_'
'enquirers_'
'eno_'
'enmity_'
'enlivening_'
'enlivened_'
'enlisting_'
'enlisted_'
'enlightenment_'
'enlightened_'
'enlargement_'
'enhances_'
'engrossing_'
'engraving_'
'engraved_'
'englishman_'
'engagement_'
'enforced_'
'energetic_'
'enduring_'
'endure_'
'endurance_'
'endowed_'
'endoscopically_'
'endometriosis_'
'endocytic_'
'endocrine_'
'endless_'
'endeavours_'
'endangered_'
'encryption_'
'encrypted_'
'encouragement_'
'encounters_'
'encountering_'
'encompassing_'
'enclosures_'
'enclosed_'
'enclose_'
'enclaves_'
'encapsulated_'
'enamel_'
'enabling_'
'enablers_'
'emulator_'
'emt_'
'emptiness_'
'employer_'
'empirically_'
'empires_'
'emperors_'
'emp_'
'emotions_'
'emotion_'
'emor_'
'emmy_'
'emma_'
'emitting_'
'eminently_'
'eminence_'
'emily_'
'emilion_'
'emi_'
'emerging_'
'emer_'
'embsay_'
'embryologist_'
'embryo_'
'embroidery_'
'embraer_'
'embossed_'
'embellished_'
'embedded_'
'embed_'
'embark_'
'embankment_'
'elvin_'
'elston_'
'elsaÃ_'
'elsa_'
'elms_'
'ellsworth_'
'elliptically_'
'elliptical_'
'ellington_'
'eller_'
'ella_'
'elizabethan_'
'elis_'
'eliot_'
'elimination_'
'elihu_'
'elidor_'
'eliator_'
'elgarÂ_'
'elevated_'
'elephants_'
'elephantmen_'
'elegy_'
'elegies_'
'elegiac_'
'elegant_'
'elegance_'
'electromagnetic_'
'electrician_'
'electorates_'
'eleanor_'
'eldoni_'
'elders_'
'elder_'
'eldar_'
'elbow_'
'elbert_'
'elastic_'
'elamite_'
'elaborations_'
'eknath_'
'eitc_'
'eindhoven_'
'eileen_'
'eighties_'
'eighth_'
'eider_'
'eichmann_'
'eichener_'
'eicd_'
'eibe_'
'ehdenÃ_'
'eh_'
'egypt_'
'eguiluz_'
'egret_'
'egos_'
'egon_'
'ego_'
'eft_'
'efik_'
'effots_'
'efficiencies_'
'effected_'
'eff1_'
'efendi_'
'eef_'
'eeda_'
'ee_'
'edwardsville_'
'edvin_'
'edvard_'
'educating_'
'eduardo_'
'edu_'
'edmundson_'
'edlug_'
'editorial_'
'edison_'
'edgewater_'
'ecuador_'
'ecstasies_'
'ecs_'
'ecosystems_'
'ecorse_'
'ecoregion_'
'economyÃ_'
'economists_'
'eco_'
'eclogues_'
'eclectic_'
'eck_'
'ecisd_'
'echostar_'
'echinobrissus_'
'echinata_'
'echelons_'
'ecclesiastical_'
'ebw_'
'ebps_'
'ebony_'
'eblaster_'
'ebay_'
'eavesdropped_'
'eateries_'
'easton_'
'eastleigh_'
'easterners_'
'eased_'
'earthÃ_'
'earthworms_'
'earthenware_'
'ears_'
'earls_'
'earle_'
'ear_'
'ealiest_'
'eakins_'
'eagles_'
'eagle_'
'eagerness_'
'eadweard_'
'e110s_'
'dyno_'
'dynkin_'
'dyncorp_'
'dynastic_'
'dynamical_'
'dylkes_'
'dylanesque_'
'dylan_'
'dykes_'
'dyke_'
'dyes_'
'dxt_'
'dwelt_'
'dwarrowdelf_'
'dwarfs_'
'dvr_'
'dvds_'
'duy_'
'dustsheets_'
'dustbin_'
'dust_'
'dusk_'
'durlia_'
'durleigh_'
'durbar_'
'durations_'
'duplication_'
'duplexes_'
'dunne_'
'dunn_'
'dunlendish_'
'dunkirk_'
'dung_'
'dunes_'
'dundas_'
'dumped_'
'dump_'
'dummies_'
'dumbarton_'
'dulwich_'
'duller_'
'duggirala_'
'dug_'
'duets_'
'duel_'
'dudley_'
'dudek_'
'duchamp_'
'dubuque_'
'dubious_'
'dubailand_'
'dsa_'
'ds_'
'drÃºnin_'
'dryness_'
'dryades_'
'drunken_'
'drunk_'
'drumsticks_'
'drumming_'
'drs_'
'drown_'
'drovers_'
'drouot_'
'droughts_'
'drought_'
'drops_'
'dripping_'
'drinks_'
'drifters_'
'drift_'
'driffield_'
'dreyfuss_'
'drexel_'
'dressing_'
'drenched_'
'dreamy_'
'dreamerÃ_'
'dreamed_'
'dreadlord_'
'dreadful_'
'draught_'
'draper_'
'dramatically_'
'dramas_'
'dram_'
'drains_'
'dragons_'
'dragonback_'
'dragged_'
'drafts_'
'drafting_'
'drafted_'
'dracco_'
'dozens_'
'doyle_'
'downstream_'
'downhill_'
'downdated_'
'dowie_'
'doves_'
'dove_'
'dourthe_'
'dougÃ_'
'dougie_'
'doubts_'
'doubted_'
'doubling_'
'doubled_'
'doua_'
'dosing_'
'doses_'
'dose_'
'dos_'
'dorylomorph_'
'dorsal_'
'dorris_'
'dorothy_'
'dormitories_'
'dorcas_'
'doppler_'
'dope_'
'doorways_'
'doorway_'
'donÂ_'
'donuts_'
'donors_'
'donnor_'
'donnelly_'
'donepezil_'
'donemus_'
'doncaster_'
'donate_'
'donaldson_'
'dominican_'
'domination_'
'dominate_'
'domains_'
'dolphin_'
'dolly_'
'dollier_'
'dolichenus_'
'doleÂ_'
'dolby_'
'dohat_'
'doesnÂ_'
'dodge_'
'dodd_'
'documentation_'
'documentary_'
'documentaries_'
'doctrine_'
'docs_'
'dockyards_'
'docklands_'
'dock_'
'doc_'
'dns_'
'dner_'
'dlbcl_'
'dla_'
'dl_'
'djÃ_'
'django_'
'dixie_'
'divorces_'
'divorced_'
'divisional_'
'divesting_'
'divert_'
'diversion_'
'diversifying_'
'diversified_'
'diversification_'
'diverges_'
'diver_'
'dived_'
'diva_'
'ditches_'
'ditched_'
'disuse_'
'disturbs_'
'disturbing_'
'disturbances_'
'disturb_'
'distrusted_'
'distribute_'
'distraction_'
'distract_'
'distort_'
'distilled_'
'distemper_'
'distantly_'
'dissolved_'
'dissolution_'
'dissipated_'
'dissidents_'
'dissidence_'
'dissertation_'
'dissentient_'
'dissenters_'
'dissent_'
'dissatisfied_'
'dissatisfaction_'
'disruptor_'
'disrupt_'
'disquieting_'
'disquiet_'
'disputing_'
'disproportionately_'
'disposable_'
'displeasure_'
'displaying_'
'dispersed_'
'dispensers_'
'dispensationalists_'
'dispensation_'
'disparities_'
'disparate_'
'disorganized_'
'dismisses_'
'dismal_'
'disliking_'
'disinterested_'
'disinclined_'
'disincentives_'
'disincentive_'
'disillusioned_'
'dishonest_'
'disgusting_'
'disgusted_'
'disguised_'
'disguise_'
'disgorged_'
'disengaging_'
'disengaged_'
'disdain_'
'discretion_'
'discrepancies_'
'discoverusa_'
'discovernewengland_'
'discouraged_'
'discourage_'
'discounts_'
'discounted_'
'discontinue_'
'discomforts_'
'discography_'
'disclosures_'
'disclosed_'
'disclaims_'
'disclaimer_'
'disciplining_'
'disciplined_'
'disciplinarity_'
'disciple_'
'discharged_'
'discharge_'
'discarded_'
'disc_'
'disapproved_'
'disapproval_'
'disappearing_'
'disagreeing_'
'disagreed_'
'disagreeable_'
'disagree_'
'disadvantaged_'
'disabling_'
'directv_'
'directory_'
'directories_'
'directorial_'
'directorate_'
'directive_'
'directions_'
'dipper_'
'dip_'
'dioramas_'
'diocesan_'
'dinosaurs_'
'dinosaur_'
'dinky_'
'dingy_'
'din_'
'dimitar_'
'dimensions_'
'dimensional_'
'dimension_'
'dimasqu_'
'dilutions_'
'dilute_'
'dillinger_'
'dilemmas_'
'dil_'
'digs_'
'dignity_'
'digitisation_'
'digestion_'
'digerati_'
'differing_'
'dieu_'
'diets_'
'dies_'
'dieoff_'
'diecast_'
'didnÂ_'
'didgeridoo_'
'dictator_'
'dictated_'
'dickson_'
'dickens_'
'diatanos_'
'diary_'
'diarmait_'
'diamorphine_'
'diameter_'
'dialysis_'
'dialog_'
'dialects_'
'dialectical_'
'diagonal_'
'diagnosing_'
'diablo_'
'dhrupads_'
'dhl_'
'dhatki_'
'dharma_'
'dgf_'
'dft_'
'df4_'
'dexterity_'
'dexter_'
'dewalt_'
'devstanam_'
'devotional_'
'devotees_'
'devote_'
'devonport_'
'devolvedÂ_'
'devolution_'
'devoid_'
'devious_'
'devin_'
'deviates_'
'deviated_'
'developer_'
'devdas_'
'devastation_'
'devastated_'
'dev_'
'deutz_'
'deus_'
'detracts_'
'detracted_'
'detonations_'
'detestation_'
'deterrent_'
'deterred_'
'determinative_'
'determinants_'
'deterioration_'
'deteriorating_'
'deteriorated_'
'detention_'
'detective_'
'detection_'
'detectable_'
'detainees_'
'destroying_'
'destitution_'
'destitute_'
'destiny_'
'destination_'
'desserts_'
'despicable_'
'desks_'
'designations_'
'deserves_'
'desertscape_'
'deserts_'
'desertion_'
'deserters_'
'describing_'
'descending_'
'derren_'
'dermatitis_'
'derives_'
'derivatives_'
'derivative_'
'derelict_'
'deregulation_'
'derbies_'
'deputies_'
'deputation_'
'dept_'
'deprivations_'
'deprivation_'
'depressive_'
'depressed_'
'depress_'
'depots_'
'depot_'
'deportation_'
'deployed_'
'depleted_'
'depicting_'
'depicted_'
'dependants_'
'departure_'
'departed_'
'depart_'
'deonar_'
'denying_'
'dent_'
'dense_'
'denominations_'
'denominational_'
'denning_'
'denki_'
'denigrate_'
'deneale_'
'demoted_'
'demonstrators_'
'demonstratively_'
'demonsrate_'
'demons_'
'demonize_'
'demolition_'
'demolishing_'
'demographics_'
'demoes_'
'democrats_'
'demise_'
'demiral_'
'demilitarized_'
'demeanor_'
'demanding_'
'demakes_'
'deluxe_'
'delusions_'
'deluge_'
'deliveries_'
'deliverability_'
'delineated_'
'delighted_'
'delight_'
'delegations_'
'delegated_'
'delay_'
'dekadance_'
'deka_'
'dek_'
'dejohnette_'
'deir_'
'dei_'
'dehydration_'
'deh_'
'degrading_'
'degenerate_'
'defuzz_'
'defunkt_'
'deflect_'
'definitive_'
'defining_'
'deficits_'
'deficiencies_'
'defiant_'
'defiance_'
'defender_'
'defended_'
'defendable_'
'defend_'
'defecation_'
'defeats_'
'defeating_'
'defeated_'
'deere_'
'deepest_'
'deed_'
'deductions_'
'deduction_'
'deduced_'
'dedications_'
'dedicatees_'
'dedicate_'
'decurtatus_'
'decreasing_'
'decontaminated_'
'decoders_'
'deco_'
'declines_'
'decks_'
'deckers_'
'decker_'
'decipher_'
'deciduous_'
'decidedly_'
'deceptively_'
'deception_'
'decendant_'
'decency_'
'decedents_'
'deccan_'
'decatur_'
'decaravas_'
'debuts_'
'debuted_'
'debutante_'
'debtmaster_'
'debris_'
'deboyne_'
'debentures_'
'debates_'
'debatable_'
'dearie_'
'dearer_'
'deane_'
'dealings_'
'dealers_'
'deadlines_'
'deadline_'
'deactivated_'
'deacons_'
'ddat_'
'dcms_'
'dcc_'
'dcb_'
'dba_'
'db_'
'daylight_'
'daycare_'
'dawson_'
'davy_'
'davos_'
'daurada_'
'daugava_'
'datum_'
'datatypes_'
'datasets_'
'datable_'
'dashed_'
'dash_'
'dartmoor_'
'darryl_'
'darrang_'
'darmarakht_'
'darlington_'
'darlings_'
'darkness_'
'darker_'
'darjeeling_'
'daring_'
'dani_'
'danforth_'
'danced_'
'dams_'
'damper_'
'dampened_'
'damned_'
'damme_'
'dame_'
'damascus_'
'damages_'
'dam_'
'dalray_'
'dalkia_'
'dalkeith_'
'dalits_'
'daliths_'
'dalian_'
'dales_'
'dalek_'
'dakshina_'
'dakshin_'
'daitm_'
'dais_'
'dainty_'
'dainik_'
'dainfern_'
'dailies_'
'dai_'
'dahl_'
'dahisar_'
'dah_'
'daddy_'
'dacians_'
'dachau_'
'dace_'
'dab_'
'da_'
'd20_'
'cÃ³rdova_'
'cÃ_'
'czechoslovakia_'
'czar_'
'cyrilo_'
'cyprus_'
'cypriots_'
'cypriot_'
'cypress_'
'cynical_'
'cymri_'
'cymbaloms_'
'cylinders_'
'cygnets_'
'cyclopentadienyl_'
'cyclist_'
'cycling_'
'cycleways_'
'cycleway_'
'cyborgs_'
'cyberspace_'
'cybernetic_'
'cyber_'
'cvc_'
'cuttings_'
'cutting_'
'cutscenes_'
'cutover_'
'cuthbert_'
'customized_'
'customised_'
'customary_'
'custodial_'
'cushman_'
'cushitic_'
'cuscuna_'
'curving_'
'curve_'
'curtesy_'
'curtains_'
'curses_'
'curricula_'
'currencies_'
'curling_'
'curious_'
'curiosity_'
'curing_'
'cure_'
'curciÃ_'
'curbside_'
'cummins_'
'cummings_'
'cumbria_'
'cumberland_'
'culturable_'
'cults_'
'cultivating_'
'culminated_'
'cullen_'
'culled_'
'cuisine_'
'cuiba_'
'cue_'
'cuddly_'
'cuckooÂ_'
'ctc_'
'cst_'
'css_'
'csia_'
'csf_'
'cse_'
'crÃ_'
'crystalline_'
'cryptographic_'
'crying_'
'crux_'
'crustaceans_'
'crushes_'
'crushed_'
'crush_'
'crusades_'
'crumpler_'
'crumbÃ_'
'cruising_'
'cruel_'
'crucifixion_'
'croydon_'
'crowley_'
'crowded_'
'crouching_'
'crosswalk_'
'crossroads_'
'crosland_'
'cropping_'
'cropped_'
'crooked_'
'crokes_'
'crohn_'
'crocodilians_'
'crockett_'
'critiquing_'
'criticised_'
'criticise_'
'critically_'
'critic_'
'crisp_'
'criseyde_'
'crinan_'
'crimson_'
'crimethinc_'
'cried_'
'cribs_'
'crewmembers_'
'crevices_'
'cretan_'
'cretaceous_'
'crescent_'
'crept_'
'crenarchaeota_'
'cremo_'
'cremations_'
'cremation_'
'cree_'
'credo_'
'creditors_'
'creature_'
'crease_'
'creams_'
'cre_'
'crayons_'
'crawling_'
'craved_'
'craton_'
'cratering_'
'crashing_'
'crap_'
'crannies_'
'cranes_'
'cramptons_'
'cramped_'
'crammed_'
'craig_'
'craftsmen_'
'crafts_'
'cradle_'
'cracks_'
'crabs_'
'cquer_'
'cpg_'
'cpds_'
'coz_'
'cowslip_'
'cowritten_'
'cowboy_'
'coward_'
'coves_'
'coverts_'
'coventry_'
'covedale_'
'covarrubias_'
'couture_'
'cousin_'
'courtyards_'
'courtyard_'
'courtney_'
'courtly_'
'courthouse_'
'couriers_'
'courgettes_'
'coupla_'
'coupe_'
'coup_'
'countryÃ_'
'countrymen_'
'countless_'
'countex_'
'countess_'
'counterweight_'
'counters_'
'counterparts_'
'counterpart_'
'countering_'
'counted_'
'counseled_'
'counsel_'
'coughlanÃ_'
'coughing_'
'coughed_'
'cough_'
'cougars_'
'cottier_'
'cottage_'
'cotta_'
'cott_'
'cotswolds_'
'cotes_'
'cosy_'
'costumes_'
'costumers_'
'costner_'
'costing_'
'costigan_'
'cosmos_'
'cosmic_'
'cosmetic_'
'cosey_'
'corwin_'
'cortex_'
'corruptly_'
'corruption_'
'corroded_'
'corridor_'
'correspondingly_'
'corresponding_'
'correspondent_'
'correctly_'
'corrected_'
'corpses_'
'corpse_'
'corporal_'
'coronet_'
'coronation_'
'corolla_'
'cornetto_'
'cornet_'
'cornerstones_'
'cornell_'
'corn_'
'cormorants_'
'corfu_'
'corey_'
'cordoned_'
'cordillera_'
'corbusier_'
'corba_'
'corals_'
'coral_'
'coquettish_'
'copying_'
'coppers_'
'copjec_'
'copious_'
'coping_'
'cop_'
'coot_'
'coordinators_'
'coordinator_'
'cooperatives_'
'cooperate_'
'cooper_'
'coon_'
'coolest_'
'coolaroo_'
'cooking_'
'cookery_'
'conway_'
'convincingly_'
'convincing_'
'conveying_'
'convey_'
'converts_'
'conversational_'
'conversation_'
'conversant_'
'conventionalized_'
'convent_'
'controversies_'
'controllled_'
'controlling_'
'controllers_'
'controller_'
'contrived_'
'contrivances_'
'contraves_'
'contravenes_'
'contrafuertes_'
'contradicted_'
'contractually_'
'contractors_'
'contours_'
'contortions_'
'contort_'
'continuo_'
'continuity_'
'continuation_'
'continents_'
'conti_'
'contexts_'
'contet_'
'contests_'
'contestants_'
'contention_'
'contempt_'
'contemplative_'
'contemplated_'
'contemplate_'
'contaminants_'
'contactor_'
'consumptivesÂ_'
'consummated_'
'consumes_'
'consume_'
'consumable_'
'consulting_'
'consulted_'
'consultant_'
'consultancy_'
'consultancies_'
'consult_'
'consul_'
'constructors_'
'constructions_'
'constraints_'
'constraint_'
'constrained_'
'constitutional_'
'constitutes_'
'constituted_'
'constituents_'
'constituencies_'
'constipation_'
'consternation_'
'constantine_'
'constantin_'
'conspicuous_'
'consortia_'
'consorcio_'
'consonants_'
'consolidate_'
'consistency_'
'conserved_'
'conservationists_'
'conscripts_'
'consciously_'
'conscience_'
'conrad_'
'conquistadores_'
'conquest_'
'conquerors_'
'conqueror_'
'conquar_'
'connor_'
'connell_'
'connectors_'
'conjur_'
'conjugated_'
'conjugal_'
'congressional_'
'congregational_'
'congratulations_'
'congo_'
'conglomerate_'
'congenitally_'
'confuse_'
'confronting_'
'confrontation_'
'confounder_'
'conformed_'
'conform_'
'conflicts_'
'confiscated_'
'confirming_'
'confirm_'
'confining_'
'confinement_'
'configurations_'
'configuration_'
'confiding_'
'confidently_'
'confession_'
'confessing_'
'confessed_'
'confections_'
'conductors_'
'conducive_'
'conditioned_'
'condensed_'
'condemnation_'
'concretions_'
'concreteÂ_'
'concreted_'
'concord_'
'concomitants_'
'concomitant_'
'conclusively_'
'concluded_'
'conchobar_'
'concessions_'
'concession_'
'concertos_'
'conceptual_'
'concentrations_'
'conceded_'
'concealed_'
'concavity_'
'conagra_'
'comyn_'
'comradely_'
'computerised_'
'computerise_'
'compute_'
'comptroller_'
'compton_'
'comps_'
'compressor_'
'compression_'
'compressed_'
'comprehensible_'
'composition_'
'complying_'
'compliment_'
'complied_'
'complications_'
'complianed_'
'completes_'
'completeness_'
'complaining_'
'complain_'
'complacency_'
'compilers_'
'competing_'
'competences_'
'competence_'
'compel_'
'compatible_'
'compassion_'
'compass_'
'compartment_'
'comparisons_'
'comparing_'
'compares_'
'compare_'
'comparatively_'
'comparable_'
'comores_'
'commuting_'
'commuters_'
'commuter_'
'communism_'
'communes_'
'communalism_'
'commodious_'
'commitments_'
'commissioners_'
'commissioner_'
'commenting_'
'commentator_'
'commensally_'
'commended_'
'commend_'
'commemoration_'
'commemorated_'
'commanding_'
'commanda_'
'comics_'
'comfy_'
'comets_'
'comedic_'
'comecon_'
'comeback_'
'combo_'
'combines_'
'comb_'
'comanches_'
'columbus_'
'columbine_'
'coltrane_'
'colt_'
'colourisers_'
'colourful_'
'coloureds_'
'colossal_'
'colonizers_'
'colonized_'
'colonization_'
'colonists_'
'coloniales_'
'colombian_'
'colombia_'
'collyer_'
'collision_'
'colliery_'
'collegeÃ_'
'collectibles_'
'collectible_'
'colleague_'
'collateral_'
'collars_'
'collapsible_'
'collapse_'
'collage_'
'collaborators_'
'collaborator_'
'collaboratively_'
'collaborative_'
'coll_'
'coleman_'
'colegio_'
'coldfire_'
'cola_'
'coke_'
'cois_'
'coinciding_'
'coinages_'
'coils_'
'coiling_'
'cohort_'
'cohesive_'
'coherent_'
'cohabitees_'
'coffs_'
'coffins_'
'coexistence_'
'coetzee_'
'coen_'
'coefficient_'
'coed_'
'coe_'
'coded_'
'codd_'
'cocos_'
'coconut_'
'cockpit_'
'cochrane_'
'coch_'
'cocaine_'
'cobra_'
'cobbled_'
'coating_'
'coated_'
'coatbridge_'
'coat_'
'coastline_'
'coaster_'
'coachbuilders_'
'co2_'
'cns_'
'cnn_'
'cnm_'
'cnd_'
'cn_'
'cmsha_'
'cma_'
'cm_'
'clÃ_'
'clyne_'
'clyde_'
'clutch_'
'clustered_'
'clunicularis_'
'clowns_'
'clowning_'
'clovis_'
'clots_'
'cloths_'
'clothed_'
'cloth_'
'closures_'
'closes_'
'clooney_'
'cloning_'
'clones_'
'clonakenny_'
'clockwise_'
'clocks_'
'clipped_'
'clip_'
'clintae_'
'clinker_'
'clinicians_'
'clinging_'
'climbers_'
'climb_'
'clifftops_'
'cliffs_'
'clicking_'
'cleverly_'
'clerk_'
'clerihews_'
'clerics_'
'clerical_'
'clem_'
'clearfells_'
'clearest_'
'cleanup_'
'cleansing_'
'cleanse_'
'cleanliness_'
'clc_'
'claybon_'
'clause_'
'claus_'
'claudius_'
'claude_'
'classmates_'
'classify_'
'classen_'
'clashes_'
'clarion_'
'clarinet_'
'clarifying_'
'clarets_'
'claret_'
'clarence_'
'clare_'
'clapham_'
'clans_'
'clandeboye_'
'clan_'
'clamp_'
'claimants_'
'clad_'
'clackmannanshire_'
'clack_'
'cjk_'
'cjc_'
'civilization_'
'citizensÂ_'
'citadel_'
'cisplatin_'
'cisc_'
'ciresÃ_'
'circulatory_'
'circulations_'
'circ_'
'cigarettes_'
'cia_'
'churchmen_'
'churchill_'
'churchgoers_'
'chung_'
'chums_'
'chuffed_'
'chucking_'
'chuck_'
'chrysander_'
'chronicle_'
'chronically_'
'chromosomes_'
'chrom_'
'christy_'
'christmassy_'
'christine_'
'christieÃ_'
'christi_'
'christened_'
'chotem_'
'chorus_'
'chortled_'
'choreographers_'
'choreographed_'
'chops_'
'chooser_'
'chondrocytes_'
'choking_'
'choirs_'
'chocolat_'
'chloride_'
'chitlin_'
'chislehurst_'
'chirp_'
'chirac_'
'chipping_'
'chipped_'
'chiossone_'
'chion_'
'chins_'
'chine_'
'chindit_'
'chinatown_'
'chinapalem_'
'chin_'
'chiluvur_'
'chiles_'
'childrenÃ_'
'childminders_'
'chiffon_'
'chicks_'
'chickens_'
'chicken_'
'chickasaw_'
'chiao_'
'chia_'
'chi_'
'chewton_'
'chet_'
'chesterfield_'
'cheshire_'
'cherryville_'
'cherokee_'
'cherish_'
'cher_'
'cheques_'
'cheque_'
'cheng_'
'chen_'
'chemotherapy_'
'chemist_'
'chemically_'
'chelicerae_'
'cheetah_'
'cheesy_'
'cheers_'
'cheering_'
'cheer_'
'checkpointÃ_'
'checklist_'
'cheapest_'
'che_'
'chauvinist_'
'chauffeur_'
'chatsworth_'
'chatham_'
'chassis_'
'chases_'
'chase_'
'chartists_'
'chartier_'
'charterhouse_'
'chartered_'
'charred_'
'charmer_'
'charm_'
'charlton_'
'charlie_'
'charlemagne_'
'charisma_'
'charging_'
'characteristically_'
'charactatures_'
'chappelow_'
'chapman_'
'chaplains_'
'chap_'
'chaoyang_'
'chaotic_'
'chao_'
'chants_'
'chanter_'
'chanson_'
'changeover_'
'chandrasekaran_'
'chandigarh_'
'chandeliers_'
'chancel_'
'chan_'
'championships_'
'champion_'
'champagne_'
'chamonix_'
'chameleon_'
'chambly_'
'chamber_'
'chamade_'
'chalmers_'
'chalkhill_'
'chaldean_'
'chairs_'
'chadwick_'
'chadderton_'
'chad_'
'chabad_'
'ch_'
'cgow_'
'cfusion_'
'cfm_'
'cfe_'
'cfa_'
'cex_'
'cessation_'
'cerÃ_'
'cervole_'
'certifies_'
'cert_'
'cerebral_'
'cereal_'
'ceramics_'
'ceos_'
'centro_'
'centralist_'
'centimetres_'
'centimeters_'
'centered_'
'centaur_'
'censorship_'
'censored_'
'ceng_'
'cemeteries_'
'celtic_'
'cellular_'
'cella_'
'celestial_'
'celebratory_'
'celebration_'
'celebrating_'
'celebrated_'
'celebrate_'
'celandine_'
'cedric_'
'ceded_'
'cecil_'
'ce_'
'cdrecord_'
'cdrdao_'
'cdr2_'
'cde_'
'ccp4_'
'ccm_'
'ccf_'
'cbms_'
'caÃ_'
'cay_'
'cavanagh_'
'cavaillÃ_'
'caution_'
'caustic_'
'causeways_'
'caulfield_'
'cauldron_'
'cauda_'
'caucasus_'
'catolica_'
'catlins_'
'catling_'
'catharine_'
'catfish_'
'caterpillars_'
'categorized_'
'categorised_'
'cate_'
'catchy_'
'catchments_'
'catching_'
'catcher_'
'catastrophic_'
'catastrophes_'
'catarrh_'
'catalink_'
'catalan_'
'catacombs_'
'casualty_'
'casual_'
'casts_'
'castration_'
'castleton_'
'castillo_'
'castes_'
'castelsarrasin_'
'caste_'
'cassidy_'
'caspian_'
'caskets_'
'casinos_'
'caseÂ_'
'caseload_'
'cascades_'
'cascade_'
'casaubon_'
'carver_'
'cartridge_'
'cartoon_'
'cartograms_'
'carter_'
'carte_'
'cart_'
'carson_'
'carrie_'
'carreya_'
'carpets_'
'carpet_'
'carpathia_'
'carols_'
'carol_'
'carnivorous_'
'carnegie_'
'carnatic_'
'carmine_'
'carmel_'
'carme_'
'carmans_'
'carlton_'
'carlsson_'
'carlisle_'
'carliol_'
'carl_'
'carisbrooke_'
'carfax_'
'careÃ_'
'carer_'
'carelessness_'
'careless_'
'careful_'
'cardiovascular_'
'cardiac_'
'cardbus_'
'cardboard_'
'carcinogen_'
'carbuncles_'
'carbohydrates_'
'carbamazepine_'
'caravans_'
'captors_'
'captivity_'
'captivesÃ_'
'captives_'
'captions_'
'caps_'
'capiznon_'
'capitol_'
'capitals_'
'capitalizations_'
[...]
